<pad>	0
<s>	0
</s>	0
<unk>	0
▁	-2.67448
s	-2.89213
,	-3.3355
▁the	-3.44692
▁.	-3.58848
▁to	-4.08573
▁of	-4.0928
▁a	-4.14118
-	-4.3282
.	-4.33805
ed	-4.3664
▁'	-4.39141
d	-4.43503
▁and	-4.44883
▁in	-4.48256
t	-4.48512
ing	-4.51871
'	-4.84049
y	-4.85971
ly	-5.04027
▁for	-5.14071
▁tha	-5.14969
▁The	-5.20073
`	-5.21256
▁be	-5.2194
$	-5.22753
▁is	-5.28979
▁`	-5.34226
▁on	-5.42094
▁sai	-5.51663
▁it	-5.5978
%	-5.62346
▁with	-5.67726
▁by	-5.72393
from	-5.73018
▁million	-5.73654
▁Mr	-5.7736
▁at	-5.7984
▁was	-5.85978
e	-5.91714
es	-5.92173
▁are	-5.92545
▁year	-5.93989
▁-	-5.94171
▁an	-5.96256
▁has	-6.02632
▁its	-6.03118
▁n	-6.07141
▁will	-6.08949
▁as	-6.10067
▁have	-6.11037
▁say	-6.17455
▁he	-6.22708
▁share	-6.26511
en	-6.28605
▁market	-6.31398
▁company	-6.31449
▁or	-6.31514
RB	-6.3851
S	-6.40407
▁which	-6.42681
▁A	-6.43647
▁would	-6.43951
▁about	-6.5021
▁In	-6.50872
n	-6.51008
▁U	-6.57097
were	-6.57966
▁this	-6.58388
▁more	-6.59366
▁billion	-6.6159
▁up	-6.62705
▁who	-6.63723
ies	-6.63734
had	-6.65321
▁But	-6.66391
▁his	-6.6906
▁their	-6.70554
▁but	-6.71319
R	-6.72035
▁price	-6.72727
er	-6.73178
▁Co	-6.74976
▁do	-6.75437
L	-6.75474
▁one	-6.7621
▁than	-6.7624
▁new	-6.7734
▁other	-6.77439
▁some	-6.79434
▁I	-6.80537
▁not	-6.81259
le	-6.85241
on	-6.85339
▁stock	-6.86643
▁also	-6.87021
▁Corp	-6.90604
:	-6.91787
al	-6.94025
&	-6.94969
▁Inc	-6.96274
▁New	-6.9645
▁c	-7.00645
▁month	-7.00997
▁It	-7.01237
▁S	-7.03006
day	-7.04222
▁over	-7.05916
▁two	-7.06374
▁business	-7.0698
▁M	-7.077
▁out	-7.08168
cause	-7.08169
▁1	-7.09826
▁E	-7.10234
▁all	-7.11095
ould	-7.13878
▁last	-7.15455
▁rate	-7.22075
▁trading	-7.22164
a	-7.22164
▁when	-7.22253
▁He	-7.22256
▁after	-7.23731
▁sales	-7.24538
▁can	-7.27363
▁any	-7.2775
▁time	-7.28423
uch	-7.28721
▁week	-7.28959
▁York	-7.30069
▁president	-7.30105
▁into	-7.30938
▁first	-7.31939
▁issue	-7.33692
▁bond	-7.34014
▁quarter	-7.34031
▁plan	-7.34397
▁interest	-7.35031
▁C	-7.35692
in	-7.3766
▁most	-7.38763
▁no	-7.38986
▁government	-7.3907
▁may	-7.40148
▁sell	-7.41795
▁compani	-7.42212
▁bank	-7.42296
▁we	-7.42407
able	-7.42884
▁if	-7.43387
▁man	-7.4416
▁down	-7.44368
▁group	-7.46324
▁investor	-7.46337
▁increase	-7.46437
▁cents	-7.47682
▁like	-7.47849
man	-7.49059
ion	-7.51499
▁buy	-7.51869
▁firm	-7.51996
▁executive	-7.52631
se	-7.52697
▁own	-7.53089
m	-7.53501
o	-7.53591
▁3	-7.53784
▁so	-7.54336
▁official	-7.54498
▁cost	-7.54597
▁end	-7.55502
▁there	-7.55778
▁unit	-7.56939
▁now	-7.58237
re	-7.58776
▁offer	-7.59143
▁analyst	-7.59187
an	-7.59201
▁part	-7.59332
▁three	-7.59615
▁rose	-7.5964
▁get	-7.60019
▁American	-7.602
▁much	-7.61335
▁recent	-7.61479
▁people	-7.61817
r	-7.62329
▁un	-7.63401
▁profit	-7.6349
out	-7.63884
▁again	-7.64375
▁investment	-7.64907
▁under	-7.65765
▁them	-7.65881
▁even	-7.66413
▁B	-7.66727
▁program	-7.67626
▁We	-7.67808
▁product	-7.68282
▁make	-7.68348
▁loss	-7.68377
▁through	-7.68379
▁10	-7.69843
▁third	-7.70602
ce	-7.70974
yester	-7.71256
▁earnings	-7.71347
▁call	-7.73232
▁high	-7.73445
▁how	-7.73576
▁state	-7.74077
▁what	-7.74219
▁you	-7.74244
▁major	-7.7502
▁D	-7.75382
h	-7.75507
▁next	-7.75929
▁add	-7.76799
did	-7.77179
ment	-7.7783
▁expect	-7.78125
▁8	-7.78767
▁just	-7.79366
year	-7.79931
ers	-7.80322
▁chief	-7.80587
▁earlier	-7.80722
▁money	-7.80972
▁late	-7.81107
▁net	-7.81878
ever	-7.81961
▁back	-7.82028
▁And	-7.82382
▁industry	-7.82539
▁work	-7.82692
▁30	-7.836
▁off	-7.84172
▁real	-7.84345
▁made	-7.84696
▁computer	-7.85039
▁point	-7.85686
▁change	-7.86017
▁before	-7.86568
▁2	-7.87286
▁show	-7.87871
▁current	-7.88053
▁federal	-7.88232
▁long	-7.88248
▁includ	-7.88372
▁report	-7.88516
▁N	-7.88728
▁concern	-7.88826
ve	-7.89332
▁financial	-7.89678
▁operation	-7.89918
▁problem	-7.9018
▁F	-7.90372
▁P	-7.90804
▁want	-7.91169
▁decline	-7.91502
▁still	-7.91649
▁take	-7.91935
▁whi	-7.91995
▁well	-7.92272
▁15	-7.92739
▁tax	-7.9333
▁contract	-7.93945
▁th	-7.94095
▁help	-7.94177
▁For	-7.94342
twee	-7.95052
▁pay	-7.95175
▁Oct	-7.95705
▁continue	-7.96211
\/8	-7.9631
▁move	-7.97488
▁director	-7.97564
▁stocks	-7.97625
▁days	-7.97922
▁yield	-7.98097
▁debt	-7.98331
▁loan	-7.98391
▁dollar	-7.98421
▁since	-7.99085
▁big	-7.99537
▁lower	-7.99605
▁bill	-7.99714
▁chairman	-7.99975
▁20	-8.0026
▁income	-8.00305
other	-8.00816
,000	-8.00865
▁case	-8.01325
xchange	-8.01567
▁close	-8.01953
▁bid	-8.02008
▁system	-8.02414
▁Japanese	-8.02579
CB	-8.02588
▁large	-8.02597
▁That	-8.02959
▁5	-8.03327
▁him	-8.034
▁Bank	-8.03595
▁value	-8.03838
▁ago	-8.04028
5	-8.04283
thing	-8.04441
▁estimate	-8.05134
▁San	-8.05382
ity	-8.05792
▁should	-8.05861
or	-8.06324
▁see	-8.06422
▁fell	-8.06431
expected	-8.06684
▁sale	-8.06925
▁base	-8.07956
▁T	-8.0808
▁higher	-8.08159
ose	-8.08182
▁reported	-8.08443
▁securities	-8.08989
▁service	-8.09076
▁five	-8.09274
▁Thi	-8.09321
ther	-8.09677
▁need	-8.09791
▁past	-8.09816
▁her	-8.10051
▁maker	-8.10347
▁right	-8.10365
▁asset	-8.10695
▁trade	-8.11143
▁remain	-8.11337
▁way	-8.11364
▁public	-8.12677
▁she	-8.12774
▁House	-8.12806
▁charge	-8.12912
▁O	-8.13232
▁Friday	-8.13548
▁total	-8.13708
▁7	-8.13733
son	-8.13844
▁gain	-8.14485
very	-8.14685
\/4	-8.1524
each	-8.15347
quarter	-8.16021
▁think	-8.16329
▁Japan	-8.16385
▁sold	-8.16625
▁exchange	-8.16956
▁funds	-8.16967
▁50	-8.17021
▁1988	-8.17091
▁If	-8.1742
A	-8.1749
▁less	-8.17498
▁use	-8.17514
▁capital	-8.17664
▁second	-8.18008
land	-8.1829
▁number	-8.18568
▁near	-8.18842
▁closed	-8.19612
▁foreign	-8.19726
▁good	-8.19739
▁both	-8.19841
▁Stock	-8.21101
▁average	-8.21506
▁office	-8.21639
▁al	-8.2168
▁dur	-8.21706
▁trader	-8.21748
▁vice	-8.21796
▁economic	-8.21848
0	-8.21913
▁growth	-8.22036
▁include	-8.22166
▁general	-8.23283
▁common	-8.23323
▁line	-8.23433
▁sever	-8.23621
▁revenue	-8.24017
▁go	-8.24558
▁start	-8.24833
▁look	-8.25023
▁where	-8.25102
▁world	-8.25218
▁National	-8.2597
▁cash	-8.26021
▁officer	-8.26028
▁our	-8.26207
▁return	-8.26563
▁plant	-8.26585
▁follow	-8.27043
▁used	-8.27239
▁agreement	-8.27444
▁being	-8.27703
▁fund	-8.27926
▁might	-8.2853
▁far	-8.28556
▁support	-8.29227
4	-8.29417
▁Soviet	-8.2994
▁due	-8.2998
▁John	-8.29983
▁four	-8.30018
▁few	-8.30158
▁put	-8.30187
▁home	-8.30212
▁British	-8.30353
▁level	-8.30681
▁cut	-8.3083
ation	-8.30855
▁board	-8.3093
▁Man	-8.30946
▁car	-8.3102
▁index	-8.31048
▁six	-8.3117
▁K	-8.31286
▁1989	-8.31323
▁annual	-8.31514
▁stake	-8.32243
▁Some	-8.32975
▁small	-8.33442
▁California	-8.3356
▁least	-8.33955
▁every	-8.34205
▁oil	-8.34215
▁yen	-8.34279
▁At	-8.34297
▁On	-8.34422
▁Congress	-8.34475
▁early	-8.34662
▁operat	-8.3533
▁result	-8.35413
▁provide	-8.35465
▁law	-8.35545
▁power	-8.36444
▁former	-8.36468
▁offering	-8.36512
▁German	-8.36656
▁believe	-8.36778
▁purchase	-8.3708
▁area	-8.37101
▁R	-8.37416
▁according	-8.37474
▁note	-8.37581
▁Treasury	-8.37902
▁damage	-8.38015
▁force	-8.38271
▁too	-8.38291
self	-8.38331
▁previous	-8.38538
▁account	-8.38828
▁Nov	-8.3883
term	-8.38974
ry	-8.38978
▁court	-8.39133
▁4	-8.39711
▁going	-8.39835
▁West	-8.40033
bas	-8.40045
1	-8.4005
▁consider	-8.4079
▁among	-8.41044
▁H	-8.41196
▁1990	-8.41786
▁There	-8.42058
▁same	-8.42111
▁credit	-8.42387
▁agree	-8.42412
▁effort	-8.42441
▁period	-8.42507
▁deal	-8.42567
▁manager	-8.42728
▁set	-8.42917
▁half	-8.42997
▁already	-8.43217
us	-8.43562
▁11	-8.43736
▁try	-8.44098
▁12	-8.44598
▁certain	-8.4479
▁day	-8.44847
▁post	-8.44903
▁econom	-8.45139
▁insurance	-8.45202
▁talk	-8.45472
▁September	-8.45543
▁One	-8.46471
▁Bus	-8.46816
▁Federal	-8.46863
2	-8.4698
▁then	-8.47186
one	-8.4724
▁management	-8.47363
▁strong	-8.475
▁little	-8.47544
▁position	-8.47683
▁spend	-8.47706
▁give	-8.47822
▁control	-8.48214
▁short	-8.48623
▁International	-8.4895
though	-8.49183
▁amount	-8.49424
▁open	-8.49633
▁fall	-8.49993
▁project	-8.5003
▁UAL	-8.5006
aid	-8.50255
▁spokes	-8.50628
ought	-8.50801
▁100	-8.50848
▁production	-8.50879
▁25	-8.50885
▁receive	-8.509
9	-8.51007
▁junk	-8.51456
▁Monday	-8.51467
▁1\/2	-8.51521
▁raise	-8.52304
at	-8.52412
3	-8.5244
gency	-8.52471
▁Street	-8.52554
▁13	-8.52567
▁Wall	-8.52592
▁1987	-8.52625
▁demand	-8.5265
▁employee	-8.52656
▁So	-8.52861
▁know	-8.53142
▁turn	-8.53154
▁wo	-8.53199
l	-8.53272
▁customer	-8.53689
until	-8.5369
▁seem	-8.53808
▁political	-8.54064
▁allow	-8.54107
▁First	-8.54158
▁takeover	-8.54294
▁non	-8.54363
▁order	-8.54438
held	-8.54963
▁To	-8.55053
▁Securities	-8.55156
▁earthquake	-8.55172
th	-8.55315
▁building	-8.55416
▁ask	-8.56006
▁comment	-8.56307
▁proposal	-8.56336
8	-8.56431
▁buying	-8.56475
the	-8.56502
i	-8.56566
▁whe	-8.56649
▁around	-8.5671
▁President	-8.56752
▁meeting	-8.56814
▁hard	-8.56889
▁record	-8.56927
▁nation	-8.57286
▁transaction	-8.57443
▁risk	-8.57573
▁policy	-8.57598
▁come	-8.57729
▁As	-8.57959
▁G	-8.5796
▁Al	-8.58104
▁head	-8.58214
▁consumer	-8.58611
▁shareholder	-8.58623
▁Group	-8.58693
▁corporate	-8.59388
▁August	-8.59433
▁become	-8.59492
▁Board	-8.59789
▁country	-8.60087
▁must	-8.60179
▁b	-8.60281
less	-8.60293
▁No	-8.60298
▁W	-8.60421
▁40	-8.60453
▁Francisco	-8.60574
▁further	-8.60578
▁results	-8.60953
▁futures	-8.61033
▁per	-8.61217
▁acquisition	-8.61222
▁mean	-8.61607
▁face	-8.61926
▁Ltd	-8.62195
6	-8.62221
▁health	-8.62432
ough	-8.62568
▁6	-8.62732
▁low	-8.62769
▁seek	-8.63084
▁old	-8.63109
▁thing	-8.63326
▁decision	-8.63397
▁figure	-8.6348
ok	-8.6371
▁rise	-8.63745
▁question	-8.63853
ia	-8.64261
▁When	-8.65089
▁run	-8.65131
▁holding	-8.65406
▁grow	-8.65537
▁9	-8.65669
▁mak	-8.65869
▁largest	-8.66357
▁Robert	-8.66636
w	-8.66646
▁drop	-8.66775
▁Dow	-8.66817
▁rule	-8.66821
▁here	-8.66996
▁Jon	-8.67087
▁top	-8.67107
▁An	-8.67134
▁keep	-8.67961
▁sign	-8.68413
▁reflect	-8.68429
▁possibl	-8.68871
▁place	-8.69143
▁Department	-8.69293
▁senior	-8.6934
▁nine	-8.69349
▁my	-8.69436
ll	-8.69891
T	-8.6996
▁term	-8.69975
▁clear	-8.70333
▁London	-8.70603
▁North	-8.70669
▁life	-8.70751
▁pre	-8.70992
old	-8.71225
▁19	-8.71782
▁L	-8.71909
up	-8.72018
▁though	-8.7217
▁research	-8.72357
▁private	-8.72377
▁worker	-8.72382
▁Dec	-8.72734
▁suit	-8.72962
▁Ju	-8.73351
most	-8.7363
▁Chicago	-8.73728
▁paid	-8.73853
▁paper	-8.73882
▁How	-8.74231
time	-8.74478
▁acquire	-8.74481
▁South	-8.74887
ance	-8.74911
▁national	-8.75
▁General	-8.75082
▁reach	-8.76131
▁lot	-8.76464
▁East	-8.76524
▁Senate	-8.76698
▁volume	-8.76782
▁hold	-8.76827
▁fiscal	-8.76954
▁example	-8.76954
ic	-8.77029
ither	-8.77549
▁Air	-8.77629
gan	-8.77906
▁Texas	-8.78074
▁action	-8.78201
▁vote	-8.78429
▁found	-8.78447
P	-8.78541
▁With	-8.78854
▁dropp	-8.79051
▁individual	-8.79324
▁composite	-8.79325
▁division	-8.79329
▁payment	-8.79352
co	-8.79362
▁us	-8.79391
▁Be	-8.79459
ld	-8.79521
later	-8.79682
▁addition	-8.79705
ley	-8.79814
▁Whi	-8.80078
▁benefit	-8.8011
▁appear	-8.80272
to	-8.80315
▁slow	-8.80479
▁18	-8.80675
▁play	-8.80929
▁Ford	-8.81153
▁J	-8.81202
▁house	-8.81389
▁full	-8.81465
▁ca	-8.81609
ive	-8.81658
▁European	-8.81858
▁31	-8.82362
▁de	-8.82705
▁Big	-8.82745
um	-8.82853
▁store	-8.82908
▁complete	-8.83134
▁future	-8.83173
f	-8.8328
▁TV	-8.83379
▁fee	-8.83641
▁better	-8.83741
▁subsidiar	-8.83877
▁measure	-8.83942
▁effect	-8.84318
▁direct	-8.84669
▁reason	-8.84768
▁compare	-8.84795
▁500	-8.84821
ness	-8.85136
▁p	-8.8521
▁Motor	-8.85252
▁estate	-8.85297
▁Washington	-8.85783
▁mortgage	-8.8582
▁administration	-8.85897
▁job	-8.86351
▁17	-8.86395
▁dividend	-8.86964
▁Las	-8.8715
▁orders	-8.87272
▁Warner	-8.87312
▁America	-8.87513
▁members	-8.87535
▁named	-8.87656
▁got	-8.87841
▁auto	-8.87906
\/	-8.8795
▁file	-8.87992
▁particular	-8.88353
▁Unit	-8.88355
▁Capital	-8.88365
▁budget	-8.88556
▁personal	-8.88571
▁lawyer	-8.88849
▁Europe	-8.88887
▁hour	-8.88983
▁mark	-8.89118
▁sharp	-8.8921
▁bigge	-8.89489
over	-8.89503
▁produce	-8.89541
▁best	-8.89737
▁activit	-8.8994
▁potential	-8.8994
▁machine	-8.90016
▁statement	-8.90075
▁drug	-8.90126
▁announce	-8.90167
▁16	-8.90232
▁city	-8.90345
▁view	-8.90353
▁boost	-8.90575
▁Jaguar	-8.90615
▁re	-8.90774
▁magazine	-8.91073
▁client	-8.91113
▁commercial	-8.91489
▁process	-8.91565
▁often	-8.91745
el	-8.91761
▁came	-8.91765
▁your	-8.91935
ton	-8.92028
ember	-8.92042
▁lead	-8.92232
est	-8.92275
7	-8.92341
▁actual	-8.92645
▁outstanding	-8.92653
▁parent	-8.927
▁import	-8.92887
▁inflation	-8.929
▁producer	-8.9304
▁once	-8.93073
▁yet	-8.93204
▁14	-8.93305
▁joint	-8.93377
ally	-8.93526
▁represent	-8.93712
▁Tuesday	-8.93745
▁local	-8.93745
▁fact	-8.93775
stead	-8.94091
▁Service	-8.943
▁deliver	-8.94424
▁hand	-8.94505
ir	-8.94617
▁You	-8.94932
▁judge	-8.94986
ary	-8.95099
ta	-8.95125
body	-8.95141
▁hope	-8.95273
▁development	-8.95396
whi	-8.95416
▁financing	-8.95421
ily	-8.95427
▁200	-8.95434
▁Union	-8.95476
▁network	-8.95501
▁important	-8.95574
te	-8.95949
▁great	-8.95977
▁What	-8.96101
▁plann	-8.96686
▁design	-8.96702
▁gas	-8.96737
hose	-8.96866
▁black	-8.97147
▁portfolio	-8.97149
▁find	-8.97176
▁Jam	-8.97209
▁IBM	-8.97707
▁never	-8.97895
▁Jun	-8.97902
▁soon	-8.98175
▁strateg	-8.9825
▁single	-8.98348
share	-8.98372
▁anti	-8.98482
▁away	-8.98657
▁center	-8.98977
▁holder	-8.99012
ober	-8.99026
▁information	-8.99662
▁test	-8.99748
▁attorney	-9.00033
▁technology	-9.00033
▁regulator	-9.00033
▁broker	-9.00045
▁union	-9.00164
▁additional	-9.00165
▁special	-9.00243
▁claims	-9.008
75	-9.0083
▁provision	-9.01221
ful	-9.01436
▁main	-9.01497
ard	-9.01636
▁industrial	-9.01765
▁Sept	-9.01811
▁reserve	-9.01818
▁international	-9.01818
▁Court	-9.01819
▁airline	-9.01824
▁deficit	-9.01886
▁Association	-9.02421
▁Los	-9.02435
ways	-9.02704
▁After	-9.03008
▁equip	-9.03041
▁slight	-9.03058
▁finance	-9.03276
▁60	-9.03608
▁lost	-9.03641
▁Tokyo	-9.03667
▁gold	-9.03675
▁Po	-9.03823
▁legal	-9.03869
k	-9.03931
▁Fed	-9.03952
▁quick	-9.04325
▁data	-9.04411
▁export	-9.04446
▁retail	-9.04494
16	-9.04521
▁via	-9.04714
▁buyer	-9.04733
▁left	-9.04928
▁White	-9.04947
▁form	-9.04998
▁equity	-9.05002
▁David	-9.05036
▁fourth	-9.05256
▁free	-9.05353
▁availab	-9.0537
month	-9.05448
▁Commission	-9.05488
▁jump	-9.05514
▁May	-9.05895
▁Revenue	-9.06114
▁committee	-9.06115
▁significant	-9.0623
▁fail	-9.0625
▁reduce	-9.06355
rate	-9.06702
▁difficult	-9.06742
▁attempt	-9.06742
▁similar	-9.06743
▁Boston	-9.06743
▁above	-9.06778
c	-9.07321
▁defense	-9.0738
▁Now	-9.07387
▁wide	-9.07394
▁team	-9.07475
taken	-9.07927
▁suggest	-9.07957
▁Calif	-9.08012
▁create	-9.08037
▁bad	-9.08039
▁begin	-9.08093
▁list	-9.08282
▁options	-9.08341
head	-9.08626
▁department	-9.08681
▁China	-9.08727
ous	-9.08734
ey	-9.08772
C	-9.08955
tax	-9.09055
▁Market	-9.0937
▁restructuring	-9.09948
▁domestic	-9.09952
▁standard	-9.10426
▁disclose	-9.10439
▁family	-9.10555
▁March	-9.10614
▁pass	-9.10645
▁Angeles	-9.10651
▁usual	-9.10677
▁continu	-9.10718
▁me	-9.10848
▁improve	-9.10944
ility	-9.10977
▁led	-9.11272
▁Western	-9.11275
▁increasing	-9.11287
▁name	-9.11348
▁agenc	-9.11568
▁makes	-9.11766
▁economist	-9.11939
▁probabl	-9.11987
.50	-9.12032
▁hit	-9.12105
wide	-9.12346
▁1986	-9.12594
▁below	-9.1263
▁pilot	-9.12664
▁Gold	-9.12676
▁construction	-9.12725
▁brand	-9.13168
▁gains	-9.13238
▁System	-9.13259
▁approval	-9.13283
▁22	-9.13535
▁venture	-9.13723
▁final	-9.13937
▁news	-9.14086
▁build	-9.14224
▁By	-9.14296
▁More	-9.14373
g	-9.14394
hairman	-9.14514
▁advertising	-9.14615
▁abortion	-9.1462
by	-9.15075
▁child	-9.15685
▁seven	-9.15997
z	-9.16152
▁accept	-9.16153
▁Sales	-9.16214
▁approve	-9.16233
▁earn	-9.16257
▁26	-9.16474
▁Canada	-9.16637
▁Under	-9.16671
▁Canadian	-9.16684
▁plunge	-9.16756
▁World	-9.16764
▁schedule	-9.16765
▁facilit	-9.17124
da	-9.1745
▁predict	-9.17591
ting	-9.17787
▁known	-9.18119
▁cit	-9.18162
▁Bay	-9.18239
K	-9.18262
special	-9.18285
▁limit	-9.18362
▁Pacific	-9.18388
▁pressure	-9.18444
▁step	-9.18461
▁Dr	-9.18494
▁food	-9.18782
▁City	-9.19018
▁condition	-9.19049
▁along	-9.19088
▁act	-9.19455
▁succeed	-9.19511
▁initial	-9.19512
taking	-9.19518
▁affect	-9.1964
▁steel	-9.19675
▁bring	-9.19775
earlier	-9.199
▁Eastern	-9.20243
▁volatil	-9.20313
▁William	-9.20408
▁Seri	-9.20488
▁school	-9.20634
▁legislati	-9.20924
▁Even	-9.20942
▁labor	-9.20958
ach	-9.20981
▁range	-9.2101
▁Other	-9.21042
▁working	-9.21241
ham	-9.21358
▁24	-9.21561
▁auction	-9.21685
▁discount	-9.21727
▁Most	-9.21762
▁pro	-9.21904
▁toward	-9.22048
▁leader	-9.22124
▁La	-9.22289
▁Bo	-9.22339
▁countr	-9.22451
▁exist	-9.22475
ized	-9.2264
▁require	-9.22863
▁Universit	-9.23161
▁percentage	-9.23163
▁heavy	-9.23288
▁21	-9.2329
▁Brita	-9.23329
▁GM	-9.23409
▁performance	-9.23471
▁Hong	-9.23912
▁institution	-9.23914
▁push	-9.23918
▁involve	-9.24039
▁coming	-9.24092
▁spokesm	-9.24258
▁property	-9.24445
▁invest	-9.24524
▁military	-9.24662
▁double	-9.24675
▁role	-9.24688
is	-9.24717
▁different	-9.25497
▁banking	-9.25573
▁hav	-9.25613
▁State	-9.26038
▁campaign	-9.26182
▁thrift	-9.26184
▁Republican	-9.26275
▁80	-9.26328
▁cover	-9.26518
▁despi	-9.26533
▁air	-9.26571
given	-9.26592
▁ra	-9.26609
▁Ne	-9.26754
▁study	-9.2695
▁subject	-9.2695
▁substantial	-9.26982
▁Del	-9.27015
▁factor	-9.27061
▁Sen	-9.27283
▁kind	-9.27363
J	-9.2743
▁compar	-9.27465
ves	-9.27475
▁basi	-9.27531
32	-9.27713
▁Michael	-9.27726
went	-9.27788
▁brokerage	-9.27811
▁All	-9.27882
ren	-9.28129
▁filing	-9.28289
▁Mean	-9.28511
▁Kong	-9.28513
▁settlement	-9.28536
▁chain	-9.28539
▁drive	-9.28759
▁De	-9.28796
▁US	-9.2881
▁relat	-9.28851
▁Ap	-9.28874
▁Airline	-9.29302
age	-9.29543
off	-9.29572
▁key	-9.29772
▁region	-9.3012
▁Institute	-9.30122
▁practice	-9.30124
▁effective	-9.30202
▁claim	-9.30267
▁recover	-9.30301
▁mid	-9.30347
▁block	-9.30378
▁television	-9.30418
▁trouble	-9.30444
▁meet	-9.30599
▁28	-9.30653
▁maintain	-9.30888
▁target	-9.30888
▁Investor	-9.30891
▁Financial	-9.30897
▁Rep	-9.30911
▁focus	-9.31038
▁staff	-9.31067
▁course	-9.31215
ril	-9.31264
B	-9.31311
▁Committee	-9.31694
▁Paul	-9.31696
▁huge	-9.317
ville	-9.31701
▁guarantee	-9.31728
▁letter	-9.31736
▁matter	-9.31785
▁French	-9.31845
▁supply	-9.31845
▁Richard	-9.32472
▁Business	-9.3251
▁currency	-9.32512
▁game	-9.32535
▁release	-9.32663
.25	-9.32739
▁margin	-9.32964
till	-9.33436
▁leaders	-9.33459
▁creditor	-9.33613
▁break	-9.33685
ist	-9.33847
errill	-9.33899
▁join	-9.33969
▁natural	-9.34153
▁expense	-9.34188
ism	-9.34661
▁light	-9.34811
▁propos	-9.3483
▁active	-9.34945
▁hurt	-9.34986
Y	-9.35007
mpact	-9.35076
▁propose	-9.35084
▁His	-9.35131
▁announc	-9.35435
▁longer	-9.35503
▁She	-9.35633
▁room	-9.35742
ty	-9.35767
▁outside	-9.35777
▁indicate	-9.35904
done	-9.35936
▁delay	-9.35992
▁involv	-9.3653
▁Lynch	-9.36674
▁immediate	-9.36674
▁situation	-9.36674
G	-9.36811
▁specific	-9.36866
▁i	-9.37079
▁wait	-9.3709
▁war	-9.37134
▁Trust	-9.37255
▁thought	-9.37395
▁pound	-9.37465
▁trust	-9.37675
▁independent	-9.37711
▁water	-9.37739
▁press	-9.38064
▁eight	-9.38348
▁Drexel	-9.38391
▁lack	-9.38395
▁CD	-9.38417
▁George	-9.38421
▁consultant	-9.38489
market	-9.3852
msel	-9.38524
▁white	-9.38612
▁franc	-9.38617
▁young	-9.38715
ite	-9.38814
▁35	-9.39204
▁ga	-9.39265
▁Frank	-9.39267
▁Democrat	-9.39315
▁engineer	-9.39487
▁manufacturing	-9.39554
▁reduced	-9.39557
cy	-9.3959
▁Conn	-9.40134
▁Fund	-9.40136
▁Industrie	-9.40137
▁Reserve	-9.40137
▁recession	-9.40137
▁newspaper	-9.40138
▁strike	-9.40146
ch	-9.40401
▁Nav	-9.4054
and	-9.40583
▁23	-9.40907
▁Judge	-9.41032
▁announcement	-9.41115
▁St	-9.41115
▁forecast	-9.41189
woman	-9.41206
▁quake	-9.41255
where	-9.41326
verage	-9.41759
haps	-9.41916
▁death	-9.41923
▁Analyst	-9.41933
▁carrier	-9.41971
▁27	-9.41989
▁separate	-9.42212
▁stop	-9.42392
▁competiti	-9.42551
▁partner	-9.42671
▁150	-9.42764
▁idea	-9.42794
mong	-9.42796
▁Wednesday	-9.42816
▁survey	-9.42855
▁event	-9.42903
▁apparent	-9.42923
▁Bond	-9.42979
▁leading	-9.43016
index	-9.43176
▁75	-9.43223
using	-9.43263
▁wh	-9.43313
▁commission	-9.43403
hat	-9.4357
▁Sal	-9.43608
▁Columb	-9.43725
▁interview	-9.43726
▁else	-9.43733
men	-9.43756
▁manag	-9.43774
▁fear	-9.438
▁Noriega	-9.43829
▁intend	-9.43856
▁source	-9.43903
▁person	-9.44228
▁word	-9.44327
▁safe	-9.44337
▁material	-9.44634
▁avoid	-9.44643
▁human	-9.44643
▁Thursday	-9.44643
▁Health	-9.44643
▁Data	-9.44761
▁sent	-9.44816
▁fight	-9.449
ler	-9.44937
▁par	-9.44984
▁simpl	-9.45006
▁pick	-9.45023
ten	-9.45111
▁sector	-9.45269
care	-9.4534
▁crash	-9.45373
▁conference	-9.4557
▁beginning	-9.45572
▁stay	-9.45575
▁45	-9.45607
▁leave	-9.45622
▁truck	-9.45761
▁29	-9.45809
▁space	-9.45861
own	-9.45897
LC	-9.46044
0,000	-9.46186
▁surge	-9.4619
came	-9.4619
▁70	-9.46268
▁feel	-9.46393
▁CBS	-9.46557
▁premium	-9.4661
▁merger	-9.46615
▁majority	-9.46997
▁rais	-9.47061
▁develop	-9.47366
▁Per	-9.47468
▁article	-9.47469
▁package	-9.47498
▁Journal	-9.47647
▁vehicle	-9.47695
▁declin	-9.4771
▁session	-9.47765
▁smaller	-9.47818
▁Dig	-9.47821
▁197	-9.47893
▁station	-9.47984
▁worth	-9.48089
▁election	-9.48099
▁climb	-9.48399
▁serious	-9.4841
▁establish	-9.48449
▁launch	-9.48686
▁limited	-9.48817
▁Am	-9.49016
▁rest	-9.49156
▁collapse	-9.49196
▁request	-9.4936
▁closing	-9.49416
▁sure	-9.4947
gains	-9.49529
relate	-9.49647
way	-9.4966
side	-9.49665
▁favor	-9.49733
▁floor	-9.49757
ital	-9.49875
▁tell	-9.49935
call	-9.50155
be	-9.50288
▁giant	-9.50331
▁Guber	-9.50333
▁Industrial	-9.5034
▁France	-9.50342
▁dealers	-9.50358
▁side	-9.50428
▁bankruptcy	-9.50482
▁dail	-9.50518
▁carry	-9.50531
▁telephone	-9.50596
▁wage	-9.50893
▁argue	-9.5107
saw	-9.51135
▁weak	-9.51177
▁relative	-9.5133
together	-9.51379
▁media	-9.51422
ern	-9.51462
ish	-9.51464
▁fixed	-9.51471
▁summer	-9.51523
▁night	-9.51612
▁Shear	-9.51636
▁model	-9.51686
▁goods	-9.51848
▁Peter	-9.52182
▁resign	-9.52262
▁Smith	-9.52275
▁expert	-9.52303
▁Ye	-9.52306
▁Brother	-9.52307
▁protection	-9.52352
▁adjust	-9.52663
▁histor	-9.52765
idder	-9.528
▁traded	-9.53205
▁congressional	-9.53302
▁chance	-9.53303
▁approach	-9.53348
▁According	-9.53374
ble	-9.53581
seas	-9.53936
ur	-9.5404
▁disaster	-9.54319
▁preferred	-9.54359
▁Hug	-9.54409
wood	-9.54422
▁1992	-9.54445
▁watch	-9.54503
kins	-9.5462
ership	-9.54643
▁promise	-9.54867
▁field	-9.55172
▁cause	-9.5518
▁banker	-9.55206
▁date	-9.55314
▁response	-9.55375
▁44	-9.55427
▁30-	-9.55552
▁states	-9.55713
▁present	-9.5576
▁happen	-9.55834
▁199	-9.55893
point	-9.55898
.75	-9.559
▁tough	-9.56236
▁2.5	-9.56296
ince	-9.56349
▁People	-9.56363
▁prevent	-9.56363
▁flat	-9.56409
TC	-9.56481
▁size	-9.56485
▁let	-9.56562
kin	-9.56575
▁Peters	-9.56623
▁convertible	-9.56672
▁write	-9.56811
▁won	-9.56881
▁men	-9.5705
▁con	-9.57052
▁normal	-9.57085
ending	-9.57219
▁whole	-9.57276
▁ever	-9.57296
▁member	-9.5733
▁expand	-9.57345
▁cancer	-9.57355
▁software	-9.5744
▁Sa	-9.57474
▁adviser	-9.57573
▁aim	-9.57675
▁associate	-9.5775
▁trial	-9.5786
▁chip	-9.58127
▁Wa	-9.58252
u	-9.58282
▁reject	-9.58404
▁entire	-9.58458
▁reform	-9.58459
▁seri	-9.58464
▁Home	-9.58482
▁offset	-9.58485
▁fair	-9.58562
ford	-9.58728
▁serve	-9.58908
▁deposit	-9.59226
x	-9.59514
▁competitor	-9.59521
▁behind	-9.59523
▁moment	-9.59528
▁women	-9.59545
▁protect	-9.59553
▁manufacturer	-9.59561
▁original	-9.59574
▁opportunit	-9.59586
▁Mass	-9.59825
well	-9.59922
tex	-9.59942
▁1,000	-9.59986
greed	-9.6014
ial	-9.60498
▁corporation	-9.60597
▁review	-9.60599
▁version	-9.606
▁elect	-9.60717
▁Time	-9.60744
▁opposit	-9.6088
▁minimum	-9.6088
oody	-9.60912
▁leveraged	-9.61026
▁win	-9.61039
▁1980	-9.61219
▁age	-9.61291
ible	-9.61392
▁evidence	-9.61684
▁unchang	-9.61686
▁veto	-9.6169
▁1985	-9.61699
IRS	-9.61737
▁insist	-9.61786
b	-9.61845
▁Stan	-9.62104
▁1.5	-9.62291
▁90	-9.62452
me	-9.62488
organ	-9.62489
▁contend	-9.62511
ier	-9.62578
▁decade	-9.62642
▁necessar	-9.62782
▁confirm	-9.62783
▁SEC	-9.62794
▁image	-9.628
rising	-9.62829
ar	-9.62829
▁Holding	-9.62852
▁Democratic	-9.62928
▁player	-9.6313
▁Communication	-9.63202
▁operate	-9.63291
▁sense	-9.6341
▁discuss	-9.63841
▁Insurance	-9.63894
▁Computer	-9.63894
▁settle	-9.63924
▁minute	-9.63984
▁Jr	-9.64012
▁difference	-9.64104
▁1.3	-9.64243
▁authorit	-9.64278
▁enter	-9.64317
▁300	-9.64393
▁morning	-9.64437
▁33	-9.64443
▁Investment	-9.65019
▁modest	-9.65021
▁temporar	-9.65024
▁battle	-9.65287
ward	-9.65332
▁Not	-9.65354
▁explain	-9.65398
brough	-9.65606
▁instance	-9.65804
counter	-9.66012
▁runn	-9.66119
▁Index	-9.6616
▁organization	-9.66161
▁Mac	-9.66202
▁attract	-9.66295
▁count	-9.66347
ex	-9.66466
▁Gorb	-9.66535
▁arbitrage	-9.66562
developed	-9.66603
▁taxe	-9.66675
M	-9.66763
chev	-9.66851
▁experience	-9.66884
▁flow	-9.66889
▁hearing	-9.66962
▁built	-9.66977
mark	-9.67257
▁introduce	-9.67268
▁January	-9.67305
▁suffer	-9.67322
▁decided	-9.67355
omon	-9.67389
▁Sony	-9.67622
▁extend	-9.67873
▁Also	-9.67875
▁party	-9.67953
▁fast	-9.68149
p	-9.68196
▁capacity	-9.68226
▁structure	-9.68279
anagement	-9.68435
▁typical	-9.68466
▁narrow	-9.68466
▁conservative	-9.68515
▁couple	-9.6855
▁headquarter	-9.68556
▁across	-9.68558
▁Reagan	-9.686
▁Eng	-9.68698
▁securit	-9.69167
▁Ma	-9.69241
▁phone	-9.69243
▁spen	-9.69453
▁Justi	-9.69491
▁abilit	-9.69545
▁various	-9.69642
▁dispute	-9.69643
▁ease	-9.69651
▁insurer	-9.69851
field	-9.69879
H	-9.69907
▁improvement	-9.69941
▁flight	-9.69953
put	-9.69972
▁fill	-9.70129
ago	-9.70279
▁book	-9.70398
▁fully	-9.7043
▁equal	-9.70585
▁Electric	-9.70833
upreme	-9.70844
▁1.2	-9.70847
▁emergency	-9.70911
▁1991	-9.70956
▁familiar	-9.70973
▁care	-9.71013
▁Part	-9.7121
ng	-9.71214
▁district	-9.71235
▁goal	-9.71253
▁stand	-9.71303
▁seat	-9.71481
▁Re	-9.71502
xpress	-9.71824
▁Do	-9.71887
▁success	-9.71961
▁victim	-9.72038
▁Lehman	-9.72038
▁ruling	-9.72038
▁alternative	-9.72038
▁spring	-9.72038
▁utilit	-9.72044
▁partnership	-9.72046
▁education	-9.72107
▁track	-9.72539
base	-9.72608
▁link	-9.72626
▁lend	-9.72663
▁fire	-9.72868
▁combin	-9.73059
▁Count	-9.73254
▁obtain	-9.73257
ne	-9.73273
▁Baker	-9.73278
▁rally	-9.73283
tan	-9.73286
▁environmental	-9.73292
▁negotiation	-9.73304
▁Price	-9.73357
▁reduction	-9.73596
it	-9.73633
AL	-9.73713
▁live	-9.74103
▁crime	-9.74225
▁Well	-9.74325
▁poor	-9.74375
▁Australia	-9.74394
▁pension	-9.74494
▁failure	-9.74495
▁commitment	-9.74496
▁Nissan	-9.74503
▁advanced	-9.7451
▁investigation	-9.74526
▁shift	-9.74543
ell	-9.74632
▁proceed	-9.74636
▁resident	-9.74818
rs	-9.74911
▁produc	-9.74917
▁broad	-9.74932
▁quality	-9.74947
corp	-9.74972
backed	-9.74981
back	-9.75004
▁Dur	-9.75101
▁miles	-9.75338
▁spread	-9.75402
▁civil	-9.75736
▁Associate	-9.75742
▁segment	-9.75742
▁adopt	-9.75743
▁Sun	-9.75747
yond	-9.7575
▁subordinate	-9.75954
▁energy	-9.75969
▁greater	-9.76007
ship	-9.7632
▁Tele	-9.76349
▁electronic	-9.76629
▁rival	-9.76638
▁maturit	-9.76768
▁55	-9.76815
utton	-9.76829
▁visit	-9.76888
▁quote	-9.76895
▁easi	-9.76926
▁retain	-9.7701
▁Two	-9.77011
▁debenture	-9.77012
▁film	-9.77207
required	-9.77404
ling	-9.77421
▁Din	-9.77527
▁Desp	-9.77676
▁option	-9.77882
▁Or	-9.78008
▁savings	-9.78105
▁acquir	-9.78123
▁conduct	-9.78164
▁chemical	-9.78284
▁Brown	-9.78289
▁unlike	-9.78317
▁respond	-9.78327
▁complain	-9.7847
▁Trad	-9.78489
▁fuel	-9.78533
▁cable	-9.78771
▁soft	-9.78782
▁1.6	-9.78794
▁read	-9.78834
▁item	-9.78877
▁comes	-9.78953
▁expectation	-9.78977
▁doubt	-9.7907
▁appeal	-9.79251
dministration	-9.79295
▁propert	-9.79314
product	-9.79388
▁medical	-9.79589
▁Secretary	-9.79589
▁learn	-9.79592
▁thousand	-9.79643
▁sort	-9.79658
ster	-9.79842
berg	-9.79981
▁match	-9.8003
▁400	-9.80053
▁season	-9.80407
▁1.1	-9.80517
▁lose	-9.80787
▁pull	-9.8086
▁Georgia	-9.80905
▁device	-9.80912
alone	-9.80964
▁challenge	-9.81119
▁42	-9.81132
▁w	-9.81277
▁Technolog	-9.8135
sterda	-9.81403
▁Gen	-9.81635
▁warrant	-9.81648
cent	-9.81673
▁controll	-9.81679
▁researcher	-9.81705
▁65	-9.81962
▁Pentagon	-9.82237
▁Research	-9.82237
▁Development	-9.82239
▁polici	-9.82241
▁agent	-9.82253
▁USA	-9.82317
▁train	-9.82343
tention	-9.82356
▁Yet	-9.8239
▁traditional	-9.8242
▁underwriter	-9.82468
▁panel	-9.82491
ra	-9.82642
ian	-9.82654
▁alleged	-9.82689
▁Fe	-9.82699
▁moving	-9.82797
▁manage	-9.82877
▁Nor	-9.82984
▁metal	-9.83089
▁mail	-9.83126
D	-9.83231
▁document	-9.83449
▁piece	-9.83461
third	-9.83486
▁trend	-9.83542
▁mutual	-9.83589
▁Chemical	-9.83589
▁housing	-9.8359
▁negative	-9.83598
▁successful	-9.83602
▁met	-9.8361
▁Mexico	-9.83645
estate	-9.83707
▁tender	-9.83721
▁Flori	-9.83826
▁student	-9.83844
▁popular	-9.83988
ors	-9.84184
▁Arm	-9.84615
than	-9.84653
▁37	-9.84681
▁land	-9.8483
▁heavi	-9.84957
▁rapid	-9.8496
▁attack	-9.8496
▁Feb	-9.84969
▁prosecutor	-9.84972
▁soar	-9.85101
▁Swiss	-9.85122
▁advance	-9.85164
▁type	-9.85182
▁liabilit	-9.85219
▁McCa	-9.85228
▁eye	-9.8529
▁operator	-9.85292
▁regard	-9.85424
ter	-9.85424
▁tie	-9.85481
▁balance	-9.85562
ant	-9.85692
▁Pa	-9.85725
ie	-9.85743
▁ground	-9.85861
▁art	-9.85869
▁Red	-9.86005
▁retailer	-9.8616
▁heart	-9.862
▁Lloyd	-9.86347
▁encourage	-9.86347
▁relationship	-9.86349
▁lawsuit	-9.86349
▁Security	-9.86368
▁restriction	-9.86376
▁discover	-9.86407
▁Trade	-9.86529
▁split	-9.8661
▁Mar	-9.86835
▁owner	-9.87103
▁woman	-9.87675
▁jury	-9.87681
▁threat	-9.87731
▁Nasdaq	-9.87756
▁aggressive	-9.87756
▁Thomas	-9.87756
▁regulation	-9.87756
▁unusual	-9.87757
▁Morris	-9.87765
▁hotel	-9.87767
▁rough	-9.87782
▁transportation	-9.87802
▁requirement	-9.87837
▁aircraft	-9.87901
▁negotiat	-9.8792
▁criminal	-9.87923
▁friend	-9.88037
▁farmer	-9.88044
▁speed	-9.88202
▁secretary	-9.88347
turned	-9.88349
▁Stein	-9.88377
▁travel	-9.88636
ang	-9.88654
▁hands	-9.88729
▁Act	-9.88769
▁mind	-9.88813
▁1.4	-9.89068
▁highly	-9.89069
▁Office	-9.89114
▁regular	-9.89184
▁Hurricane	-9.89187
▁candidate	-9.89188
aught	-9.89193
▁51	-9.89194
▁specialist	-9.89207
▁revise	-9.89247
▁highest	-9.89331
▁monitor	-9.89348
▁institutional	-9.89369
▁Brad	-9.89374
▁carrie	-9.89422
▁opening	-9.89463
▁creat	-9.89488
▁Bell	-9.89512
▁story	-9.8952
CA	-9.89548
▁43	-9.8958
▁38	-9.89656
▁check	-9.89663
▁Ko	-9.8975
▁access	-9.898
▁replace	-9.8983
▁prove	-9.90498
▁Thatcher	-9.90646
▁Brook	-9.90647
▁Moscow	-9.90695
▁rumor	-9.90702
▁Pari	-9.9091
▁oppose	-9.91059
ush	-9.91177
▁owners	-9.91229
▁award	-9.91248
▁blame	-9.91285
com	-9.91488
▁39	-9.91651
▁convert	-9.91687
▁page	-9.91767
▁Steel	-9.91872
▁class	-9.91957
▁Va	-9.92088
▁wrong	-9.92091
▁prompt	-9.92104
▁surprise	-9.92104
▁cheap	-9.92104
▁eventual	-9.9211
▁sound	-9.92158
wise	-9.92209
▁foot	-9.92295
ill	-9.92422
▁exceed	-9.92464
▁sometime	-9.92472
▁10,000	-9.9255
▁arm	-9.9268
cker	-9.9275
▁co	-9.92888
▁impos	-9.9302
oth	-9.9308
▁central	-9.93125
▁strength	-9.93409
▁barrel	-9.93501
▁influence	-9.93598
▁bench	-9.936
▁Charles	-9.93631
▁di	-9.93634
▁Over	-9.93645
▁debate	-9.9375
▁sports	-9.93759
▁1.8	-9.9383
▁Sear	-9.93847
N	-9.93947
of	-9.93975
▁War	-9.9407
▁46	-9.9407
▁competitive	-9.94167
▁Philip	-9.94194
ner	-9.94269
▁Inde	-9.94328
▁treatment	-9.94355
▁determine	-9.94437
bond	-9.94548
▁exercise	-9.94877
▁giv	-9.94944
▁industri	-9.95016
▁scientist	-9.95112
▁complex	-9.95112
▁police	-9.95113
▁Power	-9.95114
▁Food	-9.95124
▁recall	-9.9514
▁reorganization	-9.95176
▁Mich	-9.95221
▁48	-9.95342
▁Un	-9.95395
▁relie	-9.95429
▁contribute	-9.95786
▁decide	-9.95817
▁Citi	-9.9584
▁Mitsu	-9.9594
▁social	-9.95944
▁finish	-9.96164
line	-9.96198
orrow	-9.96595
Webb	-9.96651
▁defendant	-9.96657
▁speculation	-9.9666
▁portion	-9.96673
▁restaurant	-9.96715
▁Of	-9.96722
▁f	-9.96751
▁expansion	-9.9683
ett	-9.96848
pence	-9.96853
▁Green	-9.96942
▁ounce	-9.96942
▁patient	-9.97021
▁blue	-9.97062
state	-9.97115
▁kill	-9.97245
bidding	-9.97312
Pacific	-9.97548
▁save	-9.97855
▁experiment	-9.97919
▁movie	-9.98131
▁Such	-9.98144
▁Arizona	-9.98213
▁municipal	-9.98213
▁principal	-9.98213
▁technical	-9.98213
▁Rock	-9.9822
▁overall	-9.98269
▁advantage	-9.98279
▁Laws	-9.98383
▁coupon	-9.98397
▁Pain	-9.98408
▁community	-9.9846
▁instrument	-9.98509
▁AG	-9.98522
▁supplie	-9.98529
▁professional	-9.98535
▁guilt	-9.9856
▁threaten	-9.98601
▁roll	-9.98654
▁affiliate	-9.99169
▁deep	-9.99606
ext	-9.99701
▁assume	-9.99704
▁recommend	-9.99742
▁Campeau	-9.998
▁Central	-9.998
▁scandal	-9.998
▁Credit	-9.99814
▁Mill	-9.9982
▁answer	-9.99829
▁49	-9.99859
▁Donald	-9.99866
▁slipp	-9.99921
▁music	-9.99981
▁developing	-10.0005
▁road	-10.0008
▁tend	-10.0014
▁Han	-10.0021
▁rating	-10.0022
▁gene	-10.0036
▁realize	-10.0042
for	-10.0043
go	-10.0045
▁uncertaint	-10.0056
▁NBC	-10.0058
▁backed	-10.0092
night	-10.0096
TV	-10.0099
town	-10.0111
▁Commerc	-10.0127
▁understand	-10.0129
hapter	-10.0136
▁prospect	-10.0137
▁Lincoln	-10.0141
▁audience	-10.0141
▁Ohio	-10.0141
▁default	-10.0141
▁Louis	-10.0142
ntertain	-10.0142
▁1984	-10.0143
▁weakness	-10.0144
▁plastic	-10.0148
▁grant	-10.0153
▁promotion	-10.0157
▁finding	-10.0158
▁bit	-10.0165
▁fraud	-10.0184
▁Da	-10.0185
.125	-10.0191
▁purpose	-10.0208
▁developer	-10.0221
ez	-10.0225
▁expire	-10.023
▁V	-10.0231
igation	-10.0238
▁mine	-10.0254
stance	-10.0265
▁Sea	-10.0267
hour	-10.0274
▁Paris	-10.0282
ca	-10.0283
▁prepared	-10.0286
▁Life	-10.0286
▁college	-10.0305
▁responsibilit	-10.0305
▁Standard	-10.0305
▁guideline	-10.0306
▁Saving	-10.0306
▁lawmaker	-10.0307
▁Medical	-10.0308
▁Merc	-10.031
▁fil	-10.0313
▁quite	-10.0313
▁clean	-10.0317
▁caus	-10.032
▁red	-10.0321
▁LIN	-10.0337
amid	-10.0343
▁internal	-10.0345
il	-10.0363
▁cell	-10.0367
▁mis	-10.0381
▁36	-10.0382
▁fly	-10.0391
▁fine	-10.0407
▁contain	-10.0431
rote	-10.046
▁62	-10.0466
▁Toronto	-10.0472
▁extreme	-10.0472
▁pricing	-10.0472
▁patent	-10.0472
▁boom	-10.0472
▁representative	-10.0472
▁Net	-10.0473
▁Work	-10.0474
▁Though	-10.0475
▁Burn	-10.0476
▁250	-10.0476
▁opinion	-10.0479
▁discussion	-10.048
▁Minister	-10.0482
▁Lee	-10.0496
▁minister	-10.0504
▁accord	-10.0532
▁1.7	-10.0538
▁afternoon	-10.0541
▁Jan	-10.0547
▁primar	-10.0573
▁license	-10.0573
▁front	-10.0584
▁handle	-10.0597
▁details	-10.061
▁4.5	-10.0638
de	-10.064
▁Mixte	-10.0641
▁monetary	-10.0641
▁Edward	-10.0642
▁Ste	-10.0645
▁inventor	-10.0646
losing	-10.0648
▁Her	-10.0653
▁Mc	-10.0655
▁minority	-10.0656
▁Compan	-10.0659
▁movement	-10.0676
▁retirement	-10.0677
▁Times	-10.068
▁generate	-10.0682
▁signal	-10.0689
▁Mae	-10.0698
▁depend	-10.0699
▁coal	-10.07
▁Every	-10.0714
▁accounting	-10.0718
▁warn	-10.0736
▁aide	-10.0746
ney	-10.0748
eparate	-10.0775
▁user	-10.0787
▁stage	-10.079
▁gre	-10.0793
▁coup	-10.0793
right	-10.08
▁express	-10.0811
kept	-10.0812
▁Chinese	-10.0814
▁Exxon	-10.0814
▁rebound	-10.0814
▁task	-10.0815
▁suspend	-10.0815
▁slowdown	-10.0815
food	-10.0818
renz	-10.0819
▁mainframe	-10.0821
▁studie	-10.0821
▁weekend	-10.0822
▁spot	-10.0822
▁luxury	-10.0825
▁Houston	-10.0834
▁distribution	-10.0835
▁halt	-10.0845
▁provid	-10.0879
▁41	-10.0879
▁choice	-10.0881
▁core	-10.0924
bout	-10.0954
▁Center	-10.0958
▁Gul	-10.0989
ington	-10.0989
▁Stephen	-10.0989
▁Dallas	-10.0989
ei	-10.099
▁Great	-10.0994
▁liquidity	-10.0998
stock	-10.1009
▁hot	-10.1009
▁publisher	-10.1018
▁expens	-10.1023
▁tri	-10.1055
▁stopp	-10.1068
▁hospital	-10.1077
▁formal	-10.1078
▁34	-10.108
▁heat	-10.11
▁Uni	-10.1102
▁defend	-10.1106
▁El	-10.1136
▁shipp	-10.1137
▁style	-10.1149
▁environment	-10.1164
▁editor	-10.1167
▁contrast	-10.1168
▁trillion	-10.1168
▁virtual	-10.1168
▁Machine	-10.1168
▁Three	-10.1168
▁Continental	-10.1169
▁accus	-10.1169
▁charit	-10.1172
▁contribution	-10.1172
▁Southern	-10.1176
▁bear	-10.1181
▁attribute	-10.1186
▁Australian	-10.119
ball	-10.1194
price	-10.1202
▁responsibl	-10.1203
▁receiv	-10.1206
▁reporter	-10.1211
▁States	-10.1223
▁highway	-10.1226
▁AT	-10.1235
▁minor	-10.1243
▁primary	-10.1251
▁dealing	-10.1259
▁wall	-10.1262
▁Defen	-10.1285
▁voter	-10.1289
▁1970	-10.1289
25	-10.1297
▁Gran	-10.13
▁willing	-10.1325
▁GE	-10.1329
true	-10.1337
▁extra	-10.1346
▁Nicaragua	-10.135
▁twice	-10.135
▁Official	-10.135
▁Joseph	-10.135
▁easy	-10.135
▁Panama	-10.135
▁copper	-10.135
▁global	-10.135
▁sudden	-10.1353
▁ultimate	-10.1357
▁surprising	-10.1357
▁display	-10.1357
▁concede	-10.1359
▁32	-10.1361
▁8.5	-10.1362
▁shop	-10.1369
▁resume	-10.137
▁prime	-10.137
▁Manufacturer	-10.1372
▁Jack	-10.1373
▁structur	-10.1379
▁Roy	-10.1395
yield	-10.1397
gone	-10.1413
▁town	-10.1421
▁Car	-10.143
ro	-10.1434
▁Wh	-10.1452
▁hundreds	-10.1455
▁Rey	-10.1482
▁indicat	-10.1506
▁10-	-10.1519
▁illegal	-10.1535
▁positive	-10.1535
▁quiet	-10.1535
▁Third	-10.1535
▁advertiser	-10.1537
▁Oil	-10.1538
▁prett	-10.1547
▁section	-10.1556
▁trigger	-10.1556
▁resource	-10.1556
erling	-10.1557
▁Bill	-10.1565
▁plus	-10.1582
▁dozen	-10.1585
half	-10.1596
▁traffic	-10.1597
▁Phillip	-10.1598
table	-10.1613
▁Inter	-10.1614
SCI	-10.1651
▁hear	-10.1665
arlier	-10.1688
▁participat	-10.1689
bank	-10.1689
ab	-10.1695
▁transfer	-10.17
▁Africa	-10.1708
as	-10.1717
ntrol	-10.1722
▁fundamental	-10.1724
▁incentive	-10.1724
▁Broadcast	-10.1724
▁senator	-10.1724
▁Prime	-10.1724
▁Report	-10.1724
▁household	-10.1724
▁obligation	-10.1725
▁wonder	-10.1725
▁baseball	-10.1727
▁reaction	-10.1728
▁resignation	-10.1731
▁Communist	-10.1745
▁repair	-10.1746
▁Mark	-10.1751
▁basic	-10.1759
▁Sir	-10.1761
▁grand	-10.1764
▁swing	-10.1765
▁communications	-10.1775
▁putt	-10.1779
F	-10.1785
mbert	-10.179
broad	-10.1797
ine	-10.1806
more	-10.1847
▁generation	-10.1861
service	-10.1866
hard	-10.1866
▁retire	-10.1879
▁bus	-10.1891
▁Korea	-10.1901
▁site	-10.1905
ations	-10.1907
▁Star	-10.191
▁lift	-10.1916
▁Jersey	-10.1916
▁worry	-10.1917
▁Bear	-10.1921
▁throw	-10.1938
▁consulting	-10.1939
▁99	-10.1939
▁Oakland	-10.1939
▁automotive	-10.1946
▁Good	-10.1955
▁leav	-10.1966
▁hostil	-10.1967
50,000	-10.1994
▁fewer	-10.1995
▁lender	-10.2034
▁3.5	-10.2038
▁2.3	-10.2053
CI	-10.2055
▁door	-10.2097
▁Park	-10.21
▁except	-10.2106
nel	-10.211
▁famili	-10.2111
▁egg	-10.2112
▁Resource	-10.2112
bishi	-10.2112
▁Major	-10.2112
▁Like	-10.2112
▁Max	-10.2113
▁deput	-10.2114
▁certificate	-10.2117
▁Intel	-10.212
▁address	-10.2124
elecommunication	-10.2125
▁frequent	-10.2132
▁conclude	-10.2133
▁direction	-10.2133
▁conventional	-10.2137
▁commodity	-10.2144
V	-10.2145
▁amendment	-10.2147
▁v	-10.2151
tech	-10.2153
▁park	-10.2155
▁counter	-10.2156
▁detail	-10.2158
▁partners	-10.2158
▁century	-10.2159
▁painting	-10.2159
▁Real	-10.2168
▁7.5	-10.2174
▁electric	-10.2175
▁li	-10.2178
▁nuclear	-10.2198
▁secure	-10.2212
▁ratings	-10.2217
▁2.2	-10.2219
management	-10.2231
▁injur	-10.2231
▁chemicals	-10.2231
▁draw	-10.2236
▁52	-10.2237
▁ABC	-10.224
▁critic	-10.226
▁Labor	-10.228
ol	-10.2284
▁proceeding	-10.2289
▁Fi	-10.2302
uncil	-10.2311
▁Energ	-10.2311
▁Foreign	-10.2312
▁Mortgage	-10.2312
▁abandon	-10.2312
▁possibilit	-10.2312
▁voice	-10.2312
▁denie	-10.2313
▁Boeing	-10.2313
▁entertain	-10.2314
hire	-10.2315
furt	-10.2316
▁pace	-10.232
▁association	-10.2321
▁argument	-10.2322
▁120	-10.2328
▁mere	-10.233
▁moderate	-10.233
▁Holly	-10.2336
▁fel	-10.2347
▁ventures	-10.2347
▁weaken	-10.235
▁engine	-10.2351
ice	-10.2359
▁mixed	-10.2366
las	-10.2378
▁miss	-10.2382
▁Deal	-10.2383
▁strategic	-10.2387
▁street	-10.239
▁Atlanti	-10.2396
▁employer	-10.2399
tz	-10.2403
▁middle	-10.2411
▁Ba	-10.2439
▁print	-10.2457
ma	-10.2458
▁190	-10.246
▁character	-10.2463
▁declare	-10.2469
tic	-10.2489
ba	-10.2505
▁excess	-10.2515
▁Partners	-10.2516
▁Industry	-10.2516
▁title	-10.2516
▁gross	-10.2516
▁1982	-10.2517
uary	-10.2518
▁planner	-10.2519
▁coverage	-10.252
▁Aug	-10.2523
▁crude	-10.2542
▁borrow	-10.2546
▁cast	-10.2555
▁wife	-10.2555
range	-10.2565
▁cross	-10.259
▁acknowledge	-10.2612
▁drugs	-10.262
▁anticipat	-10.2624
▁tape	-10.2638
▁corn	-10.2649
space	-10.2659
▁wave	-10.269
▁confiden	-10.2694
▁fears	-10.2715
▁ratio	-10.2724
▁HUD	-10.2724
▁pipeline	-10.2725
▁crisis	-10.2725
▁politician	-10.2725
▁doctor	-10.2725
wake	-10.2726
▁Val	-10.2729
▁feature	-10.2731
▁Trans	-10.2732
▁writ	-10.2734
▁Turn	-10.2753
▁essential	-10.2758
▁switch	-10.2775
▁r	-10.2795
▁table	-10.2796
▁stronger	-10.2797
▁0.2	-10.2804
▁Financ	-10.2832
▁worrie	-10.2837
rom	-10.2837
U	-10.2851
▁Ra	-10.2851
▁tool	-10.2853
▁broadcast	-10.2859
ck	-10.2867
▁fashion	-10.2875
place	-10.288
fund	-10.288
▁sustain	-10.2881
▁cutting	-10.2885
board	-10.2889
water	-10.289
▁distribute	-10.2898
▁complaint	-10.2907
mmunity	-10.2913
stein	-10.2918
▁Pea	-10.2924
▁disk	-10.2924
▁none	-10.2926
mond	-10.2937
▁Hewlett	-10.2937
▁Saturday	-10.2937
▁categor	-10.2937
▁Prudential	-10.2937
▁extraordinar	-10.2937
▁zero	-10.2937
▁MGM	-10.2938
▁alliance	-10.2938
▁select	-10.2938
▁compromise	-10.2944
▁specialty	-10.2944
▁11\/	-10.2946
med	-10.295
▁critical	-10.2957
▁societ	-10.2962
▁Store	-10.2962
▁indication	-10.2964
▁Ital	-10.2968
law	-10.297
▁affair	-10.2978
▁publish	-10.2979
▁Volu	-10.2983
▁100,000	-10.2983
▁Bei	-10.2991
▁Fuji	-10.2992
▁3.1	-10.2994
▁prior	-10.3002
▁Con	-10.3018
▁54	-10.3022
▁assistant	-10.3034
mous	-10.304
▁apart	-10.3041
▁guy	-10.3041
▁min	-10.3044
▁Free	-10.3057
ov	-10.3057
▁severe	-10.3058
▁living	-10.3059
insurance	-10.3062
▁Line	-10.3062
▁Carl	-10.3074
▁dealer	-10.3078
ence	-10.3091
▁describe	-10.3105
▁12.5	-10.3115
limina	-10.3126
trust	-10.3126
▁picture	-10.3128
▁85	-10.3131
atchi	-10.3136
▁bike	-10.3142
▁renew	-10.3144
▁Doug	-10.3145
▁dead	-10.3145
Pack	-10.3153
uebec	-10.3154
▁arrangement	-10.3156
ver	-10.3156
▁bargain	-10.3157
▁walk	-10.3158
▁Lang	-10.3161
annie	-10.3166
▁movies	-10.3166
▁attend	-10.3169
▁Indian	-10.317
▁setting	-10.3171
▁Korean	-10.3171
▁58	-10.3175
pan	-10.3182
▁love	-10.319
loss	-10.319
▁Fred	-10.3196
dale	-10.3199
-1	-10.3204
JR	-10.3205
tsu	-10.3211
▁ban	-10.3212
▁handl	-10.3213
▁electronics	-10.3215
▁nor	-10.3218
▁ways	-10.3222
▁penalt	-10.3229
ical	-10.3232
▁stress	-10.3242
▁resolve	-10.3242
▁send	-10.3244
▁race	-10.325
▁Thu	-10.3254
▁brief	-10.3256
ities	-10.3264
▁900	-10.3272
▁bar	-10.3288
▁franchise	-10.3295
▁books	-10.3313
▁Mary	-10.3317
▁shopp	-10.3318
▁language	-10.3346
▁syndicate	-10.3347
like	-10.3354
▁seller	-10.3356
▁Lat	-10.3357
West	-10.336
▁Hill	-10.3368
istrict	-10.3368
▁counsel	-10.3376
▁Public	-10.3377
▁taxpayer	-10.3377
▁enjoy	-10.3377
▁application	-10.3377
▁rush	-10.3378
▁outlook	-10.3379
▁AMR	-10.338
▁supposed	-10.3384
▁Black	-10.3386
hus	-10.339
▁rare	-10.3392
▁studio	-10.3399
▁Nikk	-10.3403
grade	-10.3406
llor	-10.3408
▁committ	-10.3428
▁2.6	-10.3431
east	-10.3441
▁urg	-10.3449
▁fit	-10.3453
am	-10.3463
▁pursue	-10.3466
▁fan	-10.3486
▁Chr	-10.3489
▁rank	-10.3493
▁2.4	-10.3502
▁borrowing	-10.3507
▁Morg	-10.3507
▁warning	-10.3523
▁crop	-10.353
▁Lor	-10.354
▁owe	-10.355
▁garden	-10.3562
▁priorit	-10.3563
▁Hall	-10.3565
▁Gar	-10.3578
▁employ	-10.358
▁Tom	-10.3585
li	-10.3587
▁relations	-10.3598
▁Minist	-10.3602
ecutive	-10.3603
▁pharmaceutical	-10.3604
▁Telephone	-10.3604
▁Coast	-10.3604
▁criticism	-10.3605
▁membership	-10.3606
▁silver	-10.3607
▁Loan	-10.3609
▁mention	-10.361
▁Walter	-10.3611
▁Se	-10.3612
▁ensure	-10.3612
▁Costa	-10.3612
▁litigat	-10.3617
▁search	-10.3619
jing	-10.3621
arns	-10.3624
technology	-10.3629
▁strengthen	-10.3633
5,000	-10.3633
▁collection	-10.3635
▁laws	-10.364
▁cancel	-10.3648
▁57	-10.3656
ola	-10.3661
▁7\/	-10.3686
▁Bob	-10.369
▁Mit	-10.3693
down	-10.3698
▁Hart	-10.3701
▁poll	-10.3701
▁triple	-10.3717
▁101	-10.3718
▁contribut	-10.3721
▁ready	-10.3743
▁Micro	-10.3745
▁Harris	-10.3748
▁refuse	-10.3753
▁ending	-10.3757
▁inter	-10.3767
▁intelligen	-10.3772
▁modern	-10.3775
▁depress	-10.3777
ky	-10.3786
▁simple	-10.3788
witzer	-10.3796
▁bridge	-10.3798
▁EC	-10.3799
gun	-10.3826
▁exact	-10.3837
▁Source	-10.3837
▁culture	-10.3837
▁resort	-10.3837
▁participant	-10.3837
▁coffee	-10.3837
▁professor	-10.3837
▁circum	-10.3837
▁slump	-10.3837
▁solution	-10.3837
▁Drug	-10.3837
▁Economic	-10.3837
▁consist	-10.3837
▁Bridge	-10.3838
▁employment	-10.3839
▁violation	-10.3839
▁Future	-10.3839
▁shipment	-10.384
▁Cross	-10.3843
▁Show	-10.3846
▁Pittsburgh	-10.3846
▁flag	-10.3846
▁adjustment	-10.3847
▁Ross	-10.3849
tuck	-10.3851
free	-10.3852
▁47	-10.386
▁7.8	-10.386
chell	-10.3864
▁north	-10.3874
▁spirit	-10.3881
▁vot	-10.3882
▁attractive	-10.3884
▁career	-10.3888
▁Up	-10.3897
ate	-10.391
▁lie	-10.3918
▁appropriate	-10.3919
mer	-10.394
▁Law	-10.3944
▁founder	-10.3949
▁cap	-10.3957
enor	-10.3957
▁Miss	-10.3963
▁66	-10.3964
▁Just	-10.3966
▁achieve	-10.3975
▁800	-10.3988
▁protest	-10.3991
▁controversi	-10.3992
▁98	-10.4029
▁Spa	-10.4032
▁Li	-10.4036
etroleum	-10.4042
▁3.6	-10.4043
ory	-10.405
▁profitab	-10.4058
▁Israel	-10.407
▁progress	-10.4073
▁Ogilvy	-10.4075
▁apply	-10.4075
▁cautious	-10.4075
▁ceiling	-10.4075
▁fresh	-10.4075
▁procedure	-10.4075
koos	-10.4075
▁curb	-10.4075
▁message	-10.4075
▁Apple	-10.4076
▁seasonal	-10.4079
▁1993	-10.4079
▁trip	-10.4091
▁Ill	-10.4096
pped	-10.4098
cut	-10.41
▁Term	-10.41
▁bailout	-10.4103
▁Ru	-10.4105
largest	-10.4109
▁insure	-10.411
week	-10.4111
vice	-10.4112
▁5,000	-10.4117
tion	-10.4122
▁repeated	-10.4127
▁Force	-10.4128
apor	-10.4136
▁Corr	-10.4155
▁contractor	-10.4165
all	-10.4194
▁names	-10.4197
▁exten	-10.4203
▁53	-10.421
▁8.3	-10.4221
▁equivalent	-10.423
▁edge	-10.4242
▁Ken	-10.4243
▁tom	-10.4245
▁remark	-10.4261
ED	-10.4275
▁blood	-10.4281
die	-10.4287
ries	-10.4292
sumption	-10.4294
▁urge	-10.4294
▁tight	-10.4301
▁worse	-10.4303
▁merge	-10.4304
▁bottom	-10.4319
▁Bureau	-10.4319
▁victor	-10.4319
▁obvious	-10.4319
▁metric	-10.4319
▁Lawrence	-10.4319
YSE	-10.4319
▁wild	-10.4319
▁inquir	-10.4319
▁editorial	-10.4319
▁genetic	-10.432
▁animal	-10.432
▁RATE	-10.4321
▁Chance	-10.4322
▁mill	-10.4325
▁attitude	-10.4325
▁edition	-10.4326
▁refiner	-10.4328
▁Christmas	-10.4329
▁purchas	-10.433
▁Du	-10.4338
▁2.8	-10.4342
▁slide	-10.4344
▁cycle	-10.4348
▁sheet	-10.435
▁location	-10.4358
income	-10.4376
▁3.3	-10.4377
▁cold	-10.4381
▁color	-10.4384
▁Mess	-10.4384
eller	-10.4388
▁eliminate	-10.439
▁hire	-10.4417
ef	-10.4428
ious	-10.4431
bust	-10.4432
▁sides	-10.4434
▁ticket	-10.444
-2	-10.4441
ker	-10.4456
▁67	-10.4466
zo	-10.447
▁Pre	-10.4489
▁pact	-10.4492
▁Na	-10.4495
▁56	-10.4499
▁appoint	-10.45
lo	-10.4505
▁thin	-10.4518
lli	-10.452
▁chang	-10.4543
▁politic	-10.4547
▁works	-10.4553
▁correct	-10.4563
▁mass	-10.4567
▁basket	-10.4568
▁English	-10.4569
▁School	-10.4569
▁caution	-10.4569
▁colleague	-10.4569
▁semiconductor	-10.4569
▁Atlanta	-10.4569
▁exposure	-10.4569
▁window	-10.4569
▁desk	-10.4569
▁treat	-10.457
efore	-10.457
▁Four	-10.457
▁Asia	-10.4571
▁allegation	-10.4571
▁Banco	-10.4572
▁speech	-10.4579
rry	-10.458
ze	-10.4592
▁sentence	-10.4599
▁crack	-10.4599
▁rich	-10.4603
▁tourist	-10.4605
older	-10.4611
▁apple	-10.4616
▁Science	-10.4616
▁father	-10.4634
some	-10.4639
▁waste	-10.4645
trading	-10.4648
19	-10.4657
▁tumbled	-10.4669
ec	-10.4682
▁shot	-10.4683
▁constitutional	-10.4698
▁69	-10.4707
▁Allian	-10.4713
▁branch	-10.4733
▁merchandise	-10.4735
▁publishing	-10.4746
ahn	-10.4759
▁Gas	-10.4764
▁Fla	-10.4777
▁maxim	-10.4779
gen	-10.4789
▁prefer	-10.4794
▁Si	-10.4797
air	-10.4802
▁inde	-10.4809
▁audit	-10.4822
▁Societ	-10.4825
▁bolster	-10.4825
▁knock	-10.4825
▁merchant	-10.4825
▁mountain	-10.4825
▁principle	-10.4825
▁restructure	-10.4825
▁technique	-10.4825
▁passenger	-10.4825
▁worst	-10.4825
▁ministr	-10.4825
▁Carolina	-10.4825
▁Chase	-10.4825
▁deadline	-10.4826
▁AIDS	-10.4826
▁Paper	-10.4826
▁1983	-10.4827
▁mother	-10.483
▁59	-10.4834
▁anticipate	-10.4837
▁supplier	-10.4842
▁bidder	-10.485
▁Breede	-10.4854
▁Kemp	-10.4855
▁weekly	-10.4867
▁nature	-10.4874
▁afford	-10.4874
▁pill	-10.4883
▁Dun	-10.4886
secur	-10.4903
erson	-10.4904
known	-10.4914
chip	-10.4917
▁Ray	-10.4919
▁perform	-10.4926
▁assist	-10.4934
▁restrict	-10.4952
▁writer	-10.4959
▁trie	-10.4965
der	-10.4983
▁6.9	-10.4995
▁Whitt	-10.4996
▁currenc	-10.501
▁63	-10.5029
▁weight	-10.503
van	-10.5044
q	-10.5053
▁slid	-10.5061
▁stem	-10.5065
▁India	-10.5074
▁screen	-10.5075
▁administrati	-10.5077
▁collect	-10.5081
▁95	-10.5081
▁conflict	-10.5088
▁status	-10.5089
▁sophisticat	-10.5089
▁eager	-10.5089
▁Right	-10.5089
▁credib	-10.5089
▁mount	-10.5089
▁Aero	-10.509
▁Tax	-10.509
▁Hunt	-10.5091
▁efficient	-10.5092
▁exclusive	-10.5092
▁9\/	-10.5098
▁slash	-10.5099
▁insider	-10.5099
▁card	-10.51
▁beat	-10.5103
▁Mo	-10.5104
OP	-10.5104
▁introduc	-10.5107
▁Post	-10.5113
▁Sunday	-10.5113
▁faster	-10.5116
▁observer	-10.5122
▁aspect	-10.5123
▁Mes	-10.5128
▁projection	-10.5129
elke	-10.5131
▁inside	-10.5133
▁dump	-10.5138
▁brain	-10.514
▁consideration	-10.5141
▁Rev	-10.5143
PEC	-10.5145
▁universit	-10.5156
▁star	-10.5181
▁Mal	-10.5198
▁round	-10.5199
spread	-10.5201
anta	-10.5203
▁gap	-10.5203
▁Greens	-10.5209
interest	-10.521
profit	-10.5215
THE	-10.5218
ri	-10.5219
▁lease	-10.522
▁recognize	-10.5227
▁genes	-10.5243
ay	-10.5243
▁89	-10.5257
▁remove	-10.526
▁Lo	-10.5288
mura	-10.5302
BI	-10.5302
▁bureau	-10.5303
▁Art	-10.5308
▁squeeze	-10.5317
▁Sam	-10.5318
▁Sing	-10.5319
▁prison	-10.5331
maker	-10.5334
▁seed	-10.5337
▁Scott	-10.5337
▁High	-10.5339
▁ghost	-10.5354
▁Thompson	-10.5358
▁activist	-10.5358
▁tentative	-10.5358
▁nervous	-10.5358
▁Trump	-10.5358
▁dismiss	-10.5358
▁permanent	-10.5358
▁Wolf	-10.5359
▁pattern	-10.5359
▁Interstate	-10.5359
▁Housing	-10.5359
▁reputation	-10.5359
▁legislator	-10.536
▁steelmaker	-10.536
▁rallie	-10.536
▁massive	-10.536
EDER	-10.536
▁Roman	-10.5361
▁secret	-10.5361
▁Young	-10.5362
amps	-10.5362
▁shock	-10.5362
▁connection	-10.5363
▁hir	-10.5366
▁Davis	-10.5372
▁Che	-10.5385
▁bio	-10.5389
▁bann	-10.5407
▁cons	-10.5411
king	-10.5416
▁1.9	-10.542
▁stretch	-10.5421
▁6.5	-10.5425
▁widen	-10.5429
.05	-10.5429
tegrated	-10.5431
▁disappointing	-10.5434
▁appeals	-10.5444
▁drink	-10.5445
▁196	-10.5451
▁refus	-10.5457
ox	-10.5478
lin	-10.5489
▁permit	-10.5501
▁2.7	-10.5506
▁presen	-10.5507
▁emerge	-10.5507
▁branche	-10.5509
▁King	-10.5564
ring	-10.5575
▁Hone	-10.5579
▁aware	-10.5588
ac	-10.5599
▁su	-10.5601
▁Compa	-10.5607
E	-10.5619
▁198	-10.5624
▁concept	-10.5631
▁72	-10.5631
▁method	-10.5631
▁61	-10.5631
▁identify	-10.5636
▁turmoil	-10.5636
▁Mobil	-10.5636
▁Executive	-10.5636
▁wholesale	-10.5637
▁comparison	-10.5637
▁Luf	-10.5637
▁poison	-10.5638
▁dis	-10.5641
▁requir	-10.5646
▁KK	-10.5646
▁BellSouth	-10.5648
▁catch	-10.5653
▁react	-10.5654
▁burden	-10.5655
▁crowd	-10.5657
▁Daniel	-10.566
polit	-10.5661
▁function	-10.5665
▁moral	-10.5667
▁flexib	-10.5669
▁assumption	-10.5673
70	-10.5674
▁7.2	-10.5677
▁180	-10.5684
dom	-10.5685
▁drill	-10.5689
Newport	-10.569
▁Never	-10.5705
▁68	-10.5713
▁fellow	-10.5713
ntil	-10.5724
drew	-10.574
▁Phel	-10.575
led	-10.5755
▁My	-10.5765
▁reduc	-10.5768
ka	-10.5769
▁advise	-10.5785
▁Com	-10.5803
▁artist	-10.5813
▁sufficient	-10.5818
argo	-10.5823
col	-10.5837
▁eliminat	-10.5838
mann	-10.5844
▁restore	-10.5848
exchange	-10.5849
▁desire	-10.5866
▁host	-10.5882
▁square	-10.5882
▁concentrate	-10.5887
▁Bas	-10.5911
▁Sin	-10.5916
▁Pennsylvania	-10.5922
▁Philadelphia	-10.5922
▁Virgin	-10.5922
▁WCRS	-10.5922
▁bulk	-10.5922
▁surplus	-10.5922
▁somewhat	-10.5922
▁gasoline	-10.5922
▁solid	-10.5922
▁arrest	-10.5922
▁peak	-10.5922
▁consistent	-10.5922
▁Martin	-10.5922
▁neighborhood	-10.5922
▁Class	-10.5924
▁brother	-10.5925
▁350	-10.5928
▁Hungar	-10.5928
▁withdrawal	-10.5929
recapitalization	-10.5932
▁Profit	-10.5934
▁radio	-10.5937
▁score	-10.5937
▁occurr	-10.5942
▁Product	-10.5944
▁Mik	-10.5948
▁facing	-10.5951
▁stori	-10.5952
▁fleet	-10.5954
▁scene	-10.5955
▁master	-10.5956
▁novel	-10.5959
▁fur	-10.5968
▁tobacco	-10.5977
▁feeling	-10.5977
▁blow	-10.5978
▁64	-10.5982
▁rang	-10.5996
▁payable	-10.6007
▁Mur	-10.6021
▁97	-10.6021
▁Ak	-10.6033
scale	-10.6034
dak	-10.6035
▁8.2	-10.604
▁forest	-10.6041
▁Vall	-10.6049
▁theater	-10.605
▁combine	-10.6051
▁compete	-10.6061
▁register	-10.6065
▁Kell	-10.6084
ition	-10.6086
▁identifie	-10.6087
sky	-10.6105
▁proper	-10.6105
car	-10.6106
I	-10.6111
risk	-10.6115
store	-10.6117
member	-10.6119
life	-10.6129
item	-10.6131
▁self	-10.6136
quality	-10.6154
▁determin	-10.6169
▁stands	-10.6175
▁creativ	-10.6177
▁attribut	-10.6186
▁plead	-10.6191
hood	-10.6202
▁settl	-10.6202
▁Ni	-10.6203
▁install	-10.6205
▁hop	-10.6207
▁shut	-10.6212
▁video	-10.6216
▁unveil	-10.6216
▁Remic	-10.6216
▁machinist	-10.6216
▁attach	-10.6217
▁LBO	-10.6218
▁careful	-10.6219
▁multiple	-10.6221
▁Hu	-10.6222
▁1974	-10.6224
▁author	-10.6224
▁scientific	-10.6226
▁CORP	-10.6228
▁husband	-10.6229
ated	-10.6229
▁steady	-10.6245
card	-10.6248
▁engage	-10.6251
▁ignor	-10.6262
▁column	-10.6272
▁publication	-10.6279
end	-10.6319
▁Son	-10.6319
▁confus	-10.6329
▁revive	-10.633
▁remov	-10.6337
▁Wis	-10.6337
ANC	-10.6345
▁Gi	-10.6347
ane	-10.6353
▁speak	-10.6354
ger	-10.6355
zal	-10.6375
▁Sever	-10.6383
▁democrac	-10.6386
▁referr	-10.6395
▁cool	-10.6405
▁Ban	-10.641
house	-10.6415
reduction	-10.6436
▁issu	-10.6436
▁Gon	-10.6438
▁sole	-10.6449
▁plane	-10.6462
coming	-10.6467
▁charg	-10.6484
▁approv	-10.6507
dollar	-10.6507
▁ro	-10.6514
▁Cath	-10.6516
▁NASA	-10.6519
▁Ortega	-10.6519
▁Rothschild	-10.6519
▁Thomson	-10.6519
▁Webster	-10.6519
▁plummet	-10.6519
▁cigarette	-10.6519
▁definitive	-10.6519
▁defensive	-10.6519
▁Equit	-10.6519
etna	-10.6519
▁barrier	-10.6519
▁dramatic	-10.6519
▁Giant	-10.652
▁memory	-10.652
▁Saab	-10.652
▁Equip	-10.652
▁downturn	-10.652
▁freedom	-10.652
▁population	-10.652
▁strategist	-10.6524
▁persuade	-10.6524
▁aero	-10.6524
▁Berlin	-10.6525
▁apartment	-10.6525
▁Iran	-10.6525
▁Color	-10.6526
▁pregnan	-10.6532
▁suspect	-10.6532
▁Philippine	-10.6532
▁indicator	-10.6535
▁expanding	-10.6537
▁ran	-10.6537
Bache	-10.6538
▁Old	-10.6538
▁Main	-10.654
▁emerg	-10.6544
▁initiative	-10.6546
▁listen	-10.6548
▁Wood	-10.6549
▁compet	-10.6549
▁copy	-10.655
▁Brand	-10.6551
▁750	-10.6558
nce	-10.6565
▁ride	-10.657
▁Press	-10.6571
▁1.25	-10.6574
▁Dutch	-10.6577
▁Massac	-10.6578
▁pollution	-10.6579
▁dominate	-10.658
▁Pan	-10.658
▁fat	-10.6592
▁farm	-10.6594
▁II	-10.6595
▁Har	-10.6614
▁driv	-10.6617
▁sit	-10.6619
▁ex	-10.6622
▁Far	-10.6625
▁recorded	-10.6634
▁criticize	-10.6639
▁resist	-10.6649
▁sensitive	-10.665
▁Allen	-10.6653
▁Olive	-10.6655
▁theory	-10.6665
ium	-10.6667
ransportation	-10.6671
▁ma	-10.6671
ture	-10.6676
▁confident	-10.6684
oul	-10.669
▁4.8	-10.6697
▁3.9	-10.6713
▁lives	-10.6714
formation	-10.6748
▁3.4	-10.676
room	-10.6764
▁0.1	-10.6768
▁serv	-10.6769
▁abuse	-10.677
process	-10.6771
truck	-10.6776
▁Rate	-10.6792
▁shake	-10.6796
▁Penn	-10.6798
ray	-10.6806
▁enable	-10.6818
▁Small	-10.6818
▁manufacture	-10.682
▁convict	-10.6826
▁Short	-10.683
▁lobby	-10.6831
▁destroy	-10.6832
▁regime	-10.6832
▁veteran	-10.6832
▁Taiwan	-10.6832
▁Miami	-10.6832
▁compensation	-10.6832
▁pool	-10.6832
▁remember	-10.6833
▁assert	-10.6834
▁Money	-10.6834
▁cellular	-10.6835
▁Maybe	-10.6838
▁Authorit	-10.6839
▁Marsha	-10.684
▁Via	-10.6843
▁reache	-10.6847
▁colon	-10.6858
▁Whit	-10.6864
▁Dor	-10.6864
▁reluctant	-10.6873
▁promote	-10.6873
▁Mi	-10.6873
▁ne	-10.6888
▁male	-10.689
▁surface	-10.6892
▁refund	-10.6894
ski	-10.6902
▁Jim	-10.691
▁Ic	-10.6913
▁cosmetics	-10.6917
▁am	-10.6924
▁600	-10.6952
40	-10.6963
ich	-10.6966
▁Di	-10.6968
heim	-10.6974
▁load	-10.6987
▁loyalt	-10.6993
▁notice	-10.7022
▁Men	-10.7024
▁Commodit	-10.7026
ani	-10.7049
▁covering	-10.7058
een	-10.7086
ella	-10.709
▁Den	-10.7094
loan	-10.7095
ado	-10.7099
▁weapons	-10.7099
▁route	-10.7102
▁rape	-10.7103
foot	-10.7112
▁shape	-10.7115
business	-10.7118
▁Dai	-10.7124
▁spark	-10.7127
▁broke	-10.7127
▁Dar	-10.7134
▁Back	-10.7139
W	-10.7144
▁Cap	-10.7148
▁peace	-10.7152
▁subsequent	-10.7154
▁Enterprise	-10.7154
▁financier	-10.7154
▁scenario	-10.7154
▁false	-10.7154
▁Westinghouse	-10.7154
▁balloon	-10.7154
▁Colgate	-10.7154
▁scheme	-10.7154
▁routine	-10.7154
▁neighbor	-10.7154
▁psyllium	-10.7154
▁rescue	-10.7154
▁disclosure	-10.7154
ak	-10.7155
▁pulp	-10.7155
▁disease	-10.7155
▁bonus	-10.7156
▁Rena	-10.7156
▁indictment	-10.7157
▁73	-10.7157
▁institute	-10.7159
▁spill	-10.7161
▁charter	-10.7161
▁successor	-10.7167
▁Cleveland	-10.7168
▁newsletter	-10.7168
▁Electronic	-10.7168
▁Albert	-10.7169
▁Russian	-10.7171
▁1979	-10.7175
▁4.6	-10.7178
▁Lill	-10.7179
▁African	-10.718
▁stemm	-10.7183
▁200,000	-10.7186
SB	-10.7191
▁Toyo	-10.7199
ua	-10.7207
▁variet	-10.7211
rew	-10.7214
▁wealth	-10.7214
▁airport	-10.7229
▁Barr	-10.7231
▁connect	-10.7236
▁chose	-10.7245
▁Cen	-10.7264
▁repurchase	-10.7274
▁Out	-10.728
▁advocate	-10.7285
acre	-10.729
▁7.1	-10.729
▁rock	-10.7293
▁improv	-10.7297
gers	-10.7301
▁guide	-10.7308
▁inform	-10.7327
▁comfortabl	-10.7346
▁Mid	-10.7361
id	-10.7361
▁wish	-10.7367
rell	-10.737
▁Estimate	-10.7387
ama	-10.7393
▁tim	-10.7396
▁consen	-10.7402
▁Arab	-10.741
▁Banker	-10.7413
▁130	-10.7416
aiwa	-10.7433
control	-10.7438
ino	-10.7439
employment	-10.7446
▁permissi	-10.745
▁trail	-10.7458
▁occur	-10.7463
▁Pat	-10.7466
issue	-10.7466
coupon	-10.7469
▁sponsor	-10.7475
ith	-10.7482
▁Bor	-10.7482
▁Cincinnati	-10.7487
▁Baltimore	-10.7487
▁Detroit	-10.7487
▁steep	-10.7487
▁error	-10.7487
▁Current	-10.7487
▁Paramount	-10.7487
▁degree	-10.7487
▁opponent	-10.7487
▁adequate	-10.7487
▁crucial	-10.7488
▁dream	-10.7488
▁NEC	-10.7489
▁respective	-10.749
▁approximate	-10.7491
▁pour	-10.7491
▁scale	-10.7492
▁skeptic	-10.7493
▁Long	-10.7494
ide	-10.7497
▁Vega	-10.7498
rick	-10.7498
▁horse	-10.7502
▁Who	-10.7502
▁Gali	-10.7504
▁partial	-10.7505
▁Cray	-10.7507
ization	-10.7508
▁discipline	-10.7526
▁plent	-10.7528
▁die	-10.7535
ult	-10.7536
no	-10.7536
controll	-10.7537
nard	-10.7551
ux	-10.7553
▁bureaucrat	-10.7557
▁arrive	-10.7557
per	-10.7562
▁oversee	-10.7563
▁3.8	-10.7565
crete	-10.7572
▁reverse	-10.7575
gram	-10.7577
▁productiv	-10.7584
▁governor	-10.7594
how	-10.7597
▁4.2	-10.7601
▁admit	-10.7605
▁appropriation	-10.7609
▁assum	-10.7611
mak	-10.7615
yard	-10.7617
▁2.1	-10.7619
▁forward	-10.7622
igan	-10.7628
▁club	-10.763
Donald	-10.7632
hem	-10.765
leo	-10.7656
▁permitt	-10.7661
▁ski	-10.7663
▁exclud	-10.7674
▁tru	-10.7679
▁cooperati	-10.7681
▁hoped	-10.7683
▁struggle	-10.7693
nois	-10.7694
▁storage	-10.7707
▁deteriorat	-10.7708
▁Care	-10.7708
▁violate	-10.7722
▁77	-10.7725
▁Witt	-10.7727
▁killing	-10.7733
ow	-10.7738
ection	-10.7738
▁pit	-10.7742
▁sub	-10.7746
ru	-10.7746
▁wear	-10.7764
▁casino	-10.7786
▁murder	-10.7799
▁tank	-10.78
▁statistic	-10.7806
▁Vi	-10.7808
ise	-10.781
▁brew	-10.7815
▁authorize	-10.7817
▁strip	-10.7825
▁interpret	-10.7828
mposite	-10.7832
▁Government	-10.7832
▁Phoenix	-10.7832
▁applie	-10.7832
▁redemption	-10.7832
▁surround	-10.7832
▁reveal	-10.7832
▁elaborat	-10.7832
▁Bartle	-10.7832
▁Option	-10.7832
▁Fidel	-10.7833
▁contact	-10.7833
ealand	-10.7833
▁medium	-10.7833
▁Cohen	-10.7833
▁Roger	-10.7833
▁resolution	-10.7833
▁label	-10.7833
▁Foot	-10.7833
▁massage	-10.7834
▁Lew	-10.7834
▁overhaul	-10.7834
▁sex	-10.7834
appreciation	-10.7835
▁Marcos	-10.7835
▁Director	-10.7835
▁Ariz	-10.7835
▁swap	-10.7835
▁subscriber	-10.7836
▁Gillett	-10.7836
▁beer	-10.7837
▁vast	-10.7838
▁Fox	-10.7838
▁Pink	-10.7841
▁shortage	-10.7842
▁Fire	-10.7843
▁recommendation	-10.7845
▁broken	-10.7848
▁Federat	-10.785
▁intense	-10.7853
▁viewers	-10.7856
▁Pils	-10.7858
▁Pont	-10.7858
▁125	-10.7866
▁Common	-10.7872
▁Arthur	-10.7873
▁optimistic	-10.7873
▁probe	-10.7874
▁defect	-10.7876
▁Seid	-10.7883
▁trends	-10.7884
▁Turk	-10.7886
▁numer	-10.7888
▁lock	-10.7904
▁submitt	-10.7906
op	-10.7913
fer	-10.7919
▁transport	-10.7923
ennis	-10.7935
▁burn	-10.7936
ank	-10.7944
▁controvers	-10.7953
▁Pe	-10.7959
▁hundred	-10.7964
▁enhance	-10.7981
▁troubles	-10.7983
▁110	-10.7986
▁readers	-10.799
▁respect	-10.7991
que	-10.7999
▁FA	-10.8
▁Christ	-10.8006
▁oppos	-10.801
PP	-10.8013
▁140	-10.8016
▁Jen	-10.8016
▁12-	-10.8022
.06	-10.8031
▁4.7	-10.8033
▁prepare	-10.8036
▁Th	-10.8041
lan	-10.8045
▁wood	-10.8064
▁Steven	-10.8065
itting	-10.8071
▁76	-10.8073
ova	-10.8073
▁fare	-10.8085
▁Bar	-10.8095
▁Cal	-10.8112
▁Way	-10.8114
▁freight	-10.8114
.80	-10.8118
▁5.3	-10.8125
io	-10.8131
▁Henr	-10.8131
▁stick	-10.814
▁valu	-10.8143
▁considerabl	-10.8145
▁93	-10.8152
▁4.9	-10.8153
▁71	-10.8158
▁rebel	-10.8158
▁analys	-10.816
▁700	-10.8168
wing	-10.8182
▁ignore	-10.8186
venue	-10.8188
▁Consumer	-10.8189
▁conversation	-10.8189
▁defeat	-10.8189
▁stuff	-10.8189
▁element	-10.8189
▁Budget	-10.8189
▁constant	-10.8189
▁phase	-10.819
▁testimon	-10.819
andhi	-10.819
▁redeem	-10.819
▁retreat	-10.819
▁Merk	-10.819
▁pump	-10.819
▁Little	-10.819
▁FDA	-10.8191
▁Barney	-10.8191
samer	-10.8191
▁River	-10.8191
▁Commercial	-10.8191
▁Asset	-10.8192
▁perfect	-10.8193
▁1960	-10.8194
▁sluggish	-10.8194
pping	-10.8195
▁appointment	-10.8196
▁outcome	-10.8196
▁deny	-10.8197
▁raw	-10.8198
▁skill	-10.8198
▁subcommittee	-10.82
▁Coke	-10.8202
▁Gov	-10.8202
▁plea	-10.8204
▁dial	-10.8204
▁machinery	-10.8205
▁Blooming	-10.822
▁assistan	-10.8222
▁suggestion	-10.8223
piece	-10.8225
▁historical	-10.8225
▁choose	-10.8226
class	-10.8234
▁bare	-10.8237
O	-10.824
▁Boy	-10.824
▁Say	-10.8241
▁organized	-10.8242
▁actor	-10.8249
ATE	-10.825
cope	-10.825
▁quot	-10.8251
.95	-10.8251
▁Alexand	-10.8256
▁participate	-10.8257
▁300-	-10.8261
▁unexpected	-10.8267
▁5.9	-10.8267
▁arms	-10.8279
▁declar	-10.8283
▁divide	-10.8288
erton	-10.8297
▁2009	-10.8299
▁Gor	-10.8306
▁enforce	-10.8306
▁advis	-10.8307
▁Hi	-10.8307
▁resistan	-10.8308
▁circuit	-10.8319
▁Rosen	-10.8333
▁0.3	-10.8335
top	-10.8337
drive	-10.8339
▁wire	-10.8341
mont	-10.8343
UA	-10.8365
▁leas	-10.8382
▁writing	-10.8384
▁rely	-10.8394
za	-10.8395
▁row	-10.8403
▁Call	-10.8443
pe	-10.8443
▁pitch	-10.8446
.03	-10.8447
▁tin	-10.8454
▁meant	-10.8457
▁imp	-10.8465
ification	-10.8467
ke	-10.8478
▁Jacobs	-10.8481
▁Go	-10.8482
▁Ha	-10.8483
▁87	-10.8505
▁reading	-10.8505
▁chair	-10.8507
II	-10.852
▁Any	-10.8525
ee	-10.8526
▁stoo	-10.8531
▁Angel	-10.8533
▁seize	-10.8534
cor	-10.8538
▁loose	-10.8546
▁prohibit	-10.8552
▁withdraw	-10.8554
sus	-10.8555
ankruptcy	-10.8557
troller	-10.8559
uotron	-10.856
▁RICO	-10.856
▁behavior	-10.856
▁postpone	-10.856
▁consequence	-10.856
▁disagree	-10.856
▁Organization	-10.856
▁Kennedy	-10.856
▁Chief	-10.856
▁automobile	-10.856
rban	-10.8561
▁Senator	-10.8561
▁Italian	-10.8561
▁contest	-10.8562
▁intent	-10.8562
▁Block	-10.8562
▁reset	-10.8562
▁Ho	-10.8562
▁vary	-10.8565
▁conviction	-10.8566
▁factory	-10.857
▁donation	-10.8571
AGE	-10.8576
▁accuse	-10.8579
▁govern	-10.8581
▁regain	-10.8582
CIA	-10.8591
▁Human	-10.8592
▁Dea	-10.8593
▁suburb	-10.8593
ha	-10.8603
▁judgment	-10.8604
▁Alaska	-10.8604
▁grain	-10.8604
▁rent	-10.8606
west	-10.8606
▁transferr	-10.8607
▁Israeli	-10.8611
▁Le	-10.8612
tti	-10.8612
▁1995	-10.8613
▁telling	-10.8617
▁Hav	-10.8623
▁Lead	-10.8631
▁component	-10.8632
,500	-10.8632
em	-10.8633
jo	-10.8635
ogg	-10.8638
▁rid	-10.8643
ality	-10.8644
▁durable	-10.8645
▁Berk	-10.8648
ix	-10.8651
ai	-10.8652
work	-10.8654
▁spin	-10.8658
▁urban	-10.8663
▁cent	-10.8664
▁mayor	-10.8675
▁Ga	-10.8687
bridge	-10.869
▁standing	-10.8699
style	-10.8701
un	-10.8712
▁Eagle	-10.8716
▁3.7	-10.8718
▁Stevens	-10.8719
bel	-10.8742
▁franchisee	-10.8754
▁Ri	-10.8759
▁warm	-10.8762
▁capp	-10.8765
▁consent	-10.8765
▁Cable	-10.877
▁7.7	-10.8786
mi	-10.8788
▁McDon	-10.8792
00	-10.8807
90	-10.8825
▁survive	-10.8831
▁7.6	-10.8846
▁complet	-10.8848
▁forc	-10.8849
quer	-10.885
▁Day	-10.8851
ung	-10.8856
▁circulat	-10.8875
he	-10.8891
▁explorat	-10.8892
ff	-10.8892
▁5.5	-10.8899
▁citizens	-10.8908
▁Ash	-10.8929
▁Rica	-10.8936
▁Environmental	-10.8939
▁danger	-10.8943
▁Social	-10.8944
\	-10.8944
▁Minneapolis	-10.8944
▁Second	-10.8944
▁absorb	-10.8944
▁collateral	-10.8944
▁discontinu	-10.8944
▁troop	-10.8944
▁departure	-10.8944
▁straight	-10.8944
▁Leban	-10.8945
▁Tennesse	-10.8945
▁Nichol	-10.8945
▁smoke	-10.8945
▁smooth	-10.8945
▁implication	-10.8945
▁CFC	-10.8946
▁Bethle	-10.8947
▁ruble	-10.8948
▁INC	-10.8949
▁speculator	-10.895
▁outlet	-10.895
▁Klein	-10.895
▁Anders	-10.895
▁reward	-10.8951
▁setback	-10.8951
ural	-10.8955
▁friends	-10.8956
▁expenditure	-10.8961
▁suspension	-10.8961
▁prevail	-10.8961
▁spoke	-10.8967
GN	-10.897
▁kid	-10.8976
▁Jose	-10.8978
▁sea	-10.898
53	-10.8981
▁Meri	-10.8982
ul	-10.8982
▁path	-10.899
▁transform	-10.899
▁alter	-10.8994
▁102	-10.8995
▁winner	-10.8996
▁quotation	-10.9
▁port	-10.9003
▁liquid	-10.9006
AF	-10.9006
▁oust	-10.9008
fusion	-10.901
easing	-10.9016
▁coast	-10.9019
▁duty	-10.902
page	-10.9022
bread	-10.9027
▁Fees	-10.903
▁objective	-10.9041
486	-10.9042
long	-10.9052
ichi	-10.9052
▁assign	-10.9052
lent	-10.9056
▁bitter	-10.9058
▁g	-10.9059
▁7.9	-10.906
pover	-10.9062
con	-10.9078
▁missile	-10.9079
▁mart	-10.9082
▁Shell	-10.9095
cost	-10.9097
ebor	-10.9111
▁Final	-10.9117
▁Ball	-10.9122
Col	-10.9123
▁lay	-10.9126
▁mission	-10.9134
fr	-10.9149
abilit	-10.9153
cher	-10.9171
20	-10.9185
tra	-10.9187
▁Bal	-10.9196
▁exception	-10.9197
OR	-10.9205
▁Dal	-10.9207
▁Pin	-10.9209
▁bi	-10.9216
▁Texa	-10.9225
▁disappoint	-10.9229
ING	-10.9242
▁sentiment	-10.9252
▁underwrit	-10.9252
ather	-10.9256
▁la	-10.9264
▁Mer	-10.9271
▁multi	-10.9279
▁maint	-10.929
▁liberal	-10.9299
▁enact	-10.9304
nold	-10.9308
▁Mon	-10.9309
▁Island	-10.9312
▁schedul	-10.9314
elegraph	-10.9324
ark	-10.9332
▁ship	-10.9333
▁bloc	-10.9336
▁length	-10.9341
▁Spanish	-10.9344
▁vulnerab	-10.9344
▁Tiger	-10.9344
▁frustrat	-10.9344
▁hurricane	-10.9344
▁Panamanian	-10.9344
▁legislature	-10.9344
▁agricultur	-10.9344
▁plaintiff	-10.9344
▁ordinar	-10.9345
▁Gramm	-10.9345
▁expiration	-10.9345
▁precious	-10.9345
▁counterpart	-10.9345
▁Proceed	-10.9345
opher	-10.9345
▁reopen	-10.9345
aylor	-10.9345
▁council	-10.9346
▁Hook	-10.9347
▁Marina	-10.9347
▁sugar	-10.9347
▁petroleum	-10.9347
▁favorite	-10.9348
Rudman	-10.935
▁cite	-10.9354
▁emotional	-10.9354
▁Limit	-10.9355
▁cooperative	-10.9358
▁assess	-10.9359
▁Vietnam	-10.9362
▁automatic	-10.9366
▁Bi	-10.9368
▁Stone	-10.9369
▁enterprise	-10.9371
vard	-10.9372
▁admitted	-10.9372
▁Asian	-10.9377
▁disappear	-10.9381
▁Earl	-10.9382
▁visitor	-10.9383
performing	-10.9388
▁wind	-10.9392
▁perception	-10.9392
▁freeway	-10.9396
▁del	-10.9398
▁weather	-10.9399
▁copie	-10.9405
▁luck	-10.9406
▁graphic	-10.9406
holder	-10.9407
▁Farmer	-10.9413
▁Pol	-10.9414
▁Dell	-10.9416
▁Will	-10.9417
oll	-10.9421
▁20,000	-10.9426
▁78	-10.9427
▁happ	-10.9427
▁Corporat	-10.9429
▁entit	-10.9431
▁kne	-10.9436
▁Contras	-10.9438
▁argu	-10.9441
▁surviv	-10.9453
▁steadi	-10.9459
▁tone	-10.9461
plus	-10.9462
America	-10.9465
▁topic	-10.9467
▁shall	-10.9468
▁Jeffr	-10.9471
Trust	-10.9478
worth	-10.9479
▁74	-10.948
industry	-10.9481
fire	-10.9483
ied	-10.9485
▁motion	-10.9487
▁dress	-10.9499
▁struggl	-10.9509
▁famous	-10.9516
outhern	-10.9516
▁dilut	-10.9517
▁glass	-10.9518
▁195	-10.9521
ho	-10.9537
cutting	-10.9538
hold	-10.9544
▁Az	-10.9548
▁br	-10.9549
▁Pola	-10.9552
▁sand	-10.9558
aware	-10.9559
▁marked	-10.9563
ure	-10.9565
sector	-10.9586
▁PC	-10.9587
▁Lot	-10.9591
▁84	-10.9592
▁pursu	-10.9593
ison	-10.961
▁Fin	-10.9628
▁8.4	-10.9632
stone	-10.9633
▁winn	-10.9639
▁weigh	-10.964
▁intention	-10.9643
▁leverage	-10.9645
▁comp	-10.9645
▁subsid	-10.965
spective	-10.9662
isco	-10.9665
▁6.7	-10.9677
▁investigat	-10.9678
Ves	-10.968
▁integr	-10.9685
rich	-10.9686
▁96	-10.9693
attle	-10.9698
▁entrepreneur	-10.9717
.02	-10.9719
▁harm	-10.972
ore	-10.9726
▁impose	-10.9735
▁6.4	-10.9736
ration	-10.9736
roid	-10.9736
▁Steve	-10.9744
▁Sta	-10.9745
▁Lu	-10.9745
erto	-10.9749
▁Chi	-10.9751
▁emphasi	-10.9757
▁Brazil	-10.976
▁Spiel	-10.9761
▁Attorney	-10.9761
▁Giuli	-10.9761
▁Statistic	-10.9761
▁milk	-10.9761
▁IMF	-10.9761
▁Club	-10.9761
▁Disney	-10.9761
▁jail	-10.9761
flot	-10.9761
▁receipt	-10.9761
▁climat	-10.9761
▁Belgi	-10.9761
▁fruit	-10.9761
▁lung	-10.9761
▁cease	-10.9761
▁portray	-10.9761
▁academic	-10.9762
▁Polish	-10.9762
▁dangerous	-10.9762
▁Franklin	-10.9762
▁Allied	-10.9763
▁Southwest	-10.9763
▁prosecution	-10.9763
▁motor	-10.9763
▁deduction	-10.9764
▁winter	-10.9764
▁execution	-10.9764
▁Garden	-10.9765
▁calculation	-10.9765
▁Area	-10.9766
abul	-10.9766
▁Sh	-10.9766
▁theme	-10.9768
▁channel	-10.9769
▁investigator	-10.9771
▁raider	-10.9772
ILL	-10.9775
▁Swedish	-10.9779
▁Terr	-10.978
refore	-10.9781
▁8.0	-10.9785
▁Pu	-10.9787
▁250,000	-10.9788
▁assessment	-10.979
▁code	-10.9794
▁toll	-10.98
ap	-10.98
oc	-10.9801
▁170	-10.9804
▁broader	-10.9804
▁Lone	-10.9804
▁acre	-10.9813
▁Connecti	-10.9816
▁teacher	-10.9817
rance	-10.9817
▁Sports	-10.9825
▁Harv	-10.9833
DP	-10.9833
ber	-10.9834
▁convince	-10.9839
▁Ky	-10.9842
▁storm	-10.9842
▁accident	-10.9873
mo	-10.988
45	-10.9882
▁treaty	-10.9896
hail	-10.9898
▁scar	-10.9899
▁Corn	-10.9903
.10	-10.9906
▁En	-10.9906
▁refinanc	-10.9906
onald	-10.9912
sponsor	-10.9922
fare	-10.9926
▁Levin	-10.9929
▁Bu	-10.9933
alph	-10.9935
system	-10.9935
grow	-10.9941
run	-10.9954
▁feed	-10.9957
▁Put	-10.9959
programming	-10.9963
-3	-10.9965
▁sa	-10.9965
▁packag	-10.9974
▁assembl	-10.9976
▁Land	-10.9979
▁await	-10.999
▁15,000	-10.9996
▁publishe	-10.9996
▁Hills	-10.9997
sels	-10.9998
▁welcome	-11.0003
▁ships	-11.0008
▁Hast	-11.001
▁Plan	-11.0012
FL	-11.0015
▁tire	-11.0017
▁band	-11.0022
cquisition	-11.0027
80	-11.0046
▁141.	-11.0047
▁Transport	-11.0048
14	-11.005
na	-11.0056
▁districts	-11.0064
▁van	-11.0064
▁odd	-11.0069
AN	-11.0081
istic	-11.0083
▁terroris	-11.0119
▁prepar	-11.0124
ada	-11.0124
▁Ted	-11.0127
▁integrated	-11.0141
PA	-11.0145
ubb	-11.0161
▁corner	-11.0162
▁marginal	-11.0163
▁Sha	-11.0181
▁mistake	-11.0182
▁Capit	-11.0187
▁Nev	-11.0189
▁HDTV	-11.0196
▁Mexican	-11.0196
▁affidavit	-11.0196
▁bureaucrac	-11.0196
▁conglomerate	-11.0196
▁Okla	-11.0196
▁recruit	-11.0196
▁League	-11.0196
▁Picture	-11.0196
▁Result	-11.0196
▁compound	-11.0196
▁carpet	-11.0196
▁Packwood	-11.0196
▁daughter	-11.0196
▁extensive	-11.0196
▁Midwest	-11.0196
▁IRA	-11.0196
▁assassination	-11.0196
▁sanction	-11.0196
▁unfair	-11.0196
▁racial	-11.0196
▁leap	-11.0197
▁Evans	-11.0197
▁Operating	-11.0197
orient	-11.0197
▁Total	-11.0197
▁Warren	-11.0199
ORT	-11.0199
▁compil	-11.02
▁tactic	-11.0201
▁Rich	-11.0202
▁draft	-11.0203
▁incident	-11.0204
▁damp	-11.0206
▁replacement	-11.0209
ius	-11.0214
▁judicial	-11.0215
▁strain	-11.0227
▁Institution	-11.023
▁Weis	-11.023
▁Ke	-11.0234
▁loser	-11.0245
▁stepped	-11.0245
▁complicate	-11.0249
▁Fo	-11.0252
▁exercis	-11.0264
▁Laborator	-11.0269
▁pack	-11.0276
sui	-11.0277
▁20-	-11.0291
▁describ	-11.0298
.85	-11.0299
▁comparabl	-11.03
▁stabili	-11.0306
▁decrease	-11.031
▁Joe	-11.032
▁tree	-11.0321
▁bribe	-11.0323
▁Brus	-11.0323
▁green	-11.033
▁define	-11.0331
▁taxable	-11.0333
▁Lev	-11.0337
precedent	-11.0337
0.2	-11.0349
▁regulate	-11.0357
ador	-11.0364
▁journalist	-11.0364
vision	-11.0377
▁Near	-11.038
stream	-11.0388
enzo	-11.0402
mail	-11.0406
▁Kh	-11.0407
▁TW	-11.041
▁Milt	-11.0413
▁loyal	-11.0418
▁border	-11.0419
▁promis	-11.0419
▁shak	-11.0423
35	-11.0425
viation	-11.0428
▁uncertain	-11.0432
soft	-11.0433
▁Ral	-11.0437
PC	-11.0442
burn	-11.0448
▁225	-11.0448
▁south	-11.0449
action	-11.0464
holding	-11.048
goods	-11.0481
▁iron	-11.0483
.60	-11.0484
ppropriation	-11.0487
hi	-11.0496
▁Moon	-11.0498
red	-11.0501
▁tour	-11.051
.08	-11.0514
▁Amo	-11.0523
▁po	-11.0525
5.4	-11.0528
telligen	-11.0536
▁pledge	-11.0537
▁slate	-11.0565
▁EST	-11.0567
▁Ask	-11.0569
zon	-11.0578
:30	-11.0581
▁calculate	-11.0587
▁notion	-11.0588
▁9.5	-11.0593
▁formula	-11.0614
▁Eli	-11.0615
ival	-11.0615
▁Proc	-11.0631
▁Harr	-11.0631
icious	-11.0634
▁incur	-11.0636
luster	-11.064
arliament	-11.0649
mperial	-11.0649
esolution	-11.065
cribe	-11.065
▁Earth	-11.065
▁atmospher	-11.065
▁Deloitte	-11.065
▁Individual	-11.065
▁Pharmaceutical	-11.065
▁chamber	-11.065
▁concession	-11.065
▁jolt	-11.065
▁juror	-11.065
▁obstacle	-11.065
▁unsuccessful	-11.065
▁strict	-11.065
▁railroad	-11.065
▁explanation	-11.065
▁Conservative	-11.065
▁Garcia	-11.065
▁terminal	-11.065
▁lunch	-11.065
▁Vermont	-11.0651
▁fiber	-11.0651
▁illustrate	-11.0651
▁Honda	-11.0651
▁turnaround	-11.0651
▁optical	-11.0651
▁preference	-11.0651
▁conspirac	-11.0651
▁Katz	-11.0651
▁Unlike	-11.0651
▁Palo	-11.0651
▁Network	-11.0652
▁belief	-11.0652
▁Antar	-11.0652
▁Fres	-11.0652
▁Lawyer	-11.0652
▁workstation	-11.0652
ER	-11.0652
▁flaw	-11.0653
▁adult	-11.0653
▁Lake	-11.0654
▁Year	-11.0654
ug	-11.0654
▁demonstration	-11.0654
rette	-11.0655
▁touch	-11.0655
▁Nix	-11.0656
▁injunction	-11.0656
▁dual	-11.066
▁hint	-11.0661
▁treasurer	-11.0663
▁remind	-11.0664
math	-11.0664
▁boss	-11.0665
▁bull	-11.0666
▁church	-11.067
▁PAPER	-11.067
▁duti	-11.067
▁crush	-11.0671
▁league	-11.0674
▁rejection	-11.0675
10	-11.0676
▁Marine	-11.0682
icon	-11.0686
▁happening	-11.0688
▁insur	-11.069
▁electrical	-11.0695
lson	-11.0701
▁fault	-11.0704
▁efficienc	-11.0705
▁suitor	-11.0716
▁None	-11.0724
ip	-11.0727
om	-11.0728
▁Nash	-11.0728
▁Christie	-11.0736
▁79	-11.0736
▁restate	-11.0749
▁hang	-11.075
▁Alto	-11.0755
▁dog	-11.0757
▁8.1	-11.0763
ila	-11.0776
▁courts	-11.078
▁Plant	-11.0781
▁restor	-11.0791
▁gathering	-11.0792
ack	-11.0793
▁Safe	-11.0802
ile	-11.0805
▁eat	-11.0812
▁commissioner	-11.0816
6.7	-11.0817
▁Tre	-11.0824
▁driver	-11.0824
▁specialize	-11.0828
▁entry	-11.083
▁Glass	-11.0832
uge	-11.0834
▁appare	-11.0838
▁preserve	-11.0843
▁box	-11.0847
▁AB	-11.0862
▁ice	-11.0866
ini	-11.0872
awa	-11.0873
▁happens	-11.0874
▁restricted	-11.0883
wear	-11.0885
AND	-11.0889
72	-11.0901
▁2.9	-11.0904
Senate	-11.091
▁Shar	-11.0915
dominant	-11.0924
abin	-11.0938
▁Vin	-11.0951
▁sun	-11.096
lready	-11.0966
tting	-11.0966
▁adjuster	-11.0969
▁solve	-11.0984
▁mix	-11.0998
▁embarrass	-11.1011
0.3	-11.1024
ki	-11.1025
ternal	-11.103
▁commodit	-11.1048
▁consolidate	-11.105
BO	-11.1055
▁Contra	-11.1057
plex	-11.1065
▁liquidat	-11.1065
SC	-11.1079
rop	-11.1079
uk	-11.1082
▁staffer	-11.1107
▁featur	-11.1112
ig	-11.1113
arpenter	-11.1115
▁Lock	-11.1115
etic	-11.1116
standing	-11.1117
▁Mori	-11.1118
▁disrupt	-11.1121
ennial	-11.1125
teria	-11.1125
▁Anheuser	-11.1127
▁Container	-11.1127
▁Hospital	-11.1127
▁Municipal	-11.1127
▁Typical	-11.1127
▁conversion	-11.1127
▁temblor	-11.1127
▁Dynamic	-11.1127
▁absence	-11.1127
▁shrink	-11.1127
▁tumor	-11.1127
▁Travel	-11.1127
▁Diego	-11.1127
▁catalog	-11.1127
▁Filipino	-11.1127
▁PRIME	-11.1127
▁breath	-11.1127
▁conclusion	-11.1127
▁Utah	-11.1127
▁petrochemical	-11.1127
▁steal	-11.1127
▁Egg	-11.1127
▁Denver	-11.1127
▁bullish	-11.1127
▁beaut	-11.1127
▁circle	-11.1128
▁Ar	-11.1128
▁stole	-11.1128
▁bug	-11.1129
▁Recent	-11.1129
▁sideline	-11.1129
DON	-11.1129
▁Pem	-11.1129
▁explor	-11.113
▁impeach	-11.113
▁camera	-11.1132
▁disappointment	-11.1132
acketeer	-11.1132
▁Wright	-11.1132
▁respondent	-11.1133
▁heft	-11.1133
▁Alex	-11.1133
hannel	-11.1134
▁prominent	-11.1136
▁Jackson	-11.1136
▁stall	-11.1136
▁Clear	-11.1139
▁mergers	-11.114
▁instruction	-11.1141
▁absolute	-11.1141
▁Sandinista	-11.1147
▁cumulative	-11.1147
▁shuttle	-11.1148
▁Vic	-11.1149
▁useful	-11.115
▁81	-11.1152
▁Tand	-11.1152
▁Sometime	-11.1153
▁Ree	-11.1162
▁specifi	-11.1163
▁Chevro	-11.1164
▁Radi	-11.1168
▁wider	-11.1169
▁rain	-11.1169
▁string	-11.1176
▁foundation	-11.118
ick	-11.1181
raig	-11.1181
OE	-11.1187
▁decades	-11.119
Prob	-11.119
therland	-11.1194
vog	-11.1201
DI	-11.1207
heard	-11.1211
▁definition	-11.1213
live	-11.1218
▁37.5	-11.1223
▁tower	-11.1223
▁Roberts	-11.1228
▁retir	-11.1229
81	-11.1236
▁Hughe	-11.1238
▁bag	-11.1243
▁Bern	-11.1251
▁nice	-11.1253
▁root	-11.1257
▁elder	-11.1258
▁disclos	-11.1261
▁Let	-11.1264
▁Jay	-11.1272
▁witness	-11.1274
tick	-11.1288
▁Polic	-11.1288
▁punish	-11.1296
▁Burge	-11.1302
ional	-11.1306
▁swell	-11.1307
TE	-11.1318
uel	-11.1321
ential	-11.1323
gate	-11.1323
▁Gra	-11.1323
ize	-11.1325
▁Dan	-11.1333
ips	-11.1342
▁Mah	-11.1346
▁demonstrate	-11.1348
▁4.4	-11.1353
▁Van	-11.1358
▁Trin	-11.1361
▁worri	-11.1367
▁democratic	-11.1371
audi	-11.1374
after	-11.1381
folk	-11.1389
ouri	-11.1397
▁86	-11.1401
▁matur	-11.1405
▁3\/	-11.1408
ERC	-11.1409
▁pri	-11.141
4.4	-11.1414
consi	-11.1417
▁Advanc	-11.1419
▁execute	-11.142
▁Bate	-11.1426
street	-11.1432
choice	-11.1432
Communication	-11.1434
trial	-11.1435
model	-11.1435
door	-11.1435
Oct	-11.1438
power	-11.1441
level	-11.1443
▁Colo	-11.1448
▁Euro	-11.1451
▁9.6	-11.1451
▁mature	-11.1457
▁1.84	-11.1463
▁summ	-11.1467
▁Ou	-11.1469
▁promot	-11.1469
▁Boes	-11.1471
▁sport	-11.1486
▁9.8	-11.1489
ood	-11.1489
▁sum	-11.1491
▁Lan	-11.15
war	-11.1514
▁1997	-11.1514
▁failing	-11.1514
min	-11.1515
▁Leg	-11.1515
▁super	-11.1517
▁inces	-11.1524
ran	-11.154
made	-11.1542
▁7.3	-11.1545
▁Mad	-11.1547
▁batter	-11.1547
▁Farm	-11.1551
case	-11.1559
▁6.3	-11.1566
▁communit	-11.1571
▁command	-11.1574
come	-11.1578
▁kick	-11.1592
▁jewel	-11.1592
arnings	-11.1595
ota	-11.1599
inch	-11.1601
arter	-11.1603
▁Port	-11.1609
▁distributor	-11.1612
▁Mini	-11.1612
▁grip	-11.1615
nform	-11.1616
▁doubl	-11.1617
▁Banc	-11.1617
▁repay	-11.1623
heid	-11.1625
rative	-11.1625
▁COMM	-11.1626
la	-11.1626
▁88	-11.1626
▁Affair	-11.1627
▁Agricultur	-11.1627
▁Chamber	-11.1627
▁Church	-11.1627
▁Volokh	-11.1627
▁boast	-11.1627
▁diminish	-11.1627
▁flood	-11.1627
▁hybrid	-11.1627
▁implement	-11.1627
▁ozone	-11.1627
ATO	-11.1627
▁agenda	-11.1627
▁Field	-11.1627
▁mort	-11.1627
▁Geneva	-11.1627
▁Roche	-11.1627
▁Economist	-11.1627
▁radical	-11.1627
▁Partnership	-11.1627
▁Metro	-11.1627
▁talent	-11.1627
▁Richmond	-11.1627
▁legitimate	-11.1627
▁Gerald	-11.1627
▁extension	-11.1627
▁pursuit	-11.1627
▁dictator	-11.1627
▁Toshi	-11.1627
▁Further	-11.1628
▁hardware	-11.1628
▁pork	-11.1628
▁FHA	-11.1628
▁LON	-11.1628
▁Wash	-11.1628
▁lobbyist	-11.1628
▁backlog	-11.1628
▁taste	-11.1629
▁background	-11.1629
▁idle	-11.1629
▁Order	-11.1631
▁Benson	-11.1631
▁escape	-11.1631
▁bright	-11.1632
▁prospective	-11.1633
ITT	-11.1635
▁indirect	-11.1636
owa	-11.1637
▁8.8	-11.1637
▁Irvin	-11.1638
bok	-11.164
▁Stras	-11.1641
▁guess	-11.1643
▁Shan	-11.1643
▁quota	-11.1645
▁Blum	-11.1647
▁Hispanic	-11.1648
▁lowest	-11.1649
▁protein	-11.1649
▁Christian	-11.1649
▁Merkur	-11.1649
▁Exch	-11.165
shelf	-11.1653
▁consorti	-11.1661
▁Provi	-11.1662
▁Ku	-11.1663
▁practical	-11.1667
cry	-11.1668
▁Roe	-11.1672
▁speculate	-11.1682
▁Row	-11.1684
▁intellectual	-11.1686
antil	-11.1688
▁Edis	-11.1689
▁upper	-11.1697
▁reasonabl	-11.1699
▁ethic	-11.1701
▁appearance	-11.1707
▁sha	-11.1715
▁angr	-11.1715
part	-11.1715
▁Matt	-11.1717
tigation	-11.1718
raft	-11.1723
▁sweeping	-11.1725
▁comed	-11.174
▁Nige	-11.174
CH	-11.1749
▁hair	-11.1755
▁6.6	-11.1763
sides	-11.1776
▁Mil	-11.1778
▁odds	-11.1779
▁Finn	-11.1785
v	-11.1795
▁450	-11.1797
▁Ka	-11.1805
▁issuer	-11.1808
▁grower	-11.1826
▁honor	-11.1837
▁lean	-11.1838
▁End	-11.184
▁earth	-11.1844
emel	-11.1846
▁becom	-11.1898
non	-11.1902
▁thank	-11.1903
▁Honey	-11.1914
public	-11.1915
▁Robins	-11.1938
▁revolution	-11.194
▁Ca	-11.1948
▁invite	-11.1949
fold	-11.1951
exempt	-11.1966
▁philosoph	-11.1968
▁Kennet	-11.1969
▁Min	-11.197
▁500-	-11.1976
purchase	-11.1985
▁influ	-11.1989
▁era	-11.1991
people	-11.1993
▁5.8	-11.1996
15	-11.2003
drink	-11.2004
ipped	-11.2006
▁subsidi	-11.2012
test	-11.2013
▁Kar	-11.2024
▁consolidat	-11.2039
▁bread	-11.204
city	-11.2048
▁4.3	-11.205
▁Nu	-11.2051
▁privatiz	-11.2055
▁convinc	-11.2055
ssembly	-11.2066
▁6.2	-11.2072
ana	-11.2076
pur	-11.2084
▁Unil	-11.2084
.6	-11.2086
.04	-11.2087
eth	-11.2087
▁jet	-11.2092
▁Tim	-11.2101
nforcement	-11.2103
▁Cam	-11.2104
▁guard	-11.2108
▁independen	-11.211
▁Rose	-11.211
issan	-11.2125
▁ideal	-11.2125
bur	-11.2126
11	-11.2129
enbaum	-11.2131
unny	-11.2132
▁83	-11.2132
▁3.2	-11.2134
▁Malaysia	-11.2135
▁detect	-11.2139
▁Jew	-11.2151
▁liqu	-11.2152
▁Cowboys	-11.2153
▁Deposit	-11.2153
▁Education	-11.2153
▁Magazine	-11.2153
▁catastrophe	-11.2153
▁encouraging	-11.2153
▁maneuver	-11.2153
▁tremendous	-11.2153
▁assurance	-11.2153
▁statute	-11.2153
aspar	-11.2153
▁derivative	-11.2153
▁relax	-11.2153
▁Dozen	-11.2153
▁combat	-11.2153
▁vigorous	-11.2153
▁diamond	-11.2153
Mercury	-11.2153
▁holiday	-11.2153
▁Record	-11.2153
UND	-11.2154
Benz	-11.2154
▁catastrophic	-11.2154
▁Tower	-11.2154
▁Keating	-11.2154
▁haunt	-11.2154
▁truth	-11.2155
shita	-11.2155
▁fend	-11.2156
▁payroll	-11.2156
▁Independent	-11.2157
▁steam	-11.2158
▁alarm	-11.2158
▁Protecti	-11.2158
▁asbestos	-11.2158
▁confrontation	-11.2159
▁disruption	-11.2159
▁supervisor	-11.2159
▁ambitio	-11.216
▁Water	-11.2161
▁commuter	-11.2162
▁1996	-11.2163
▁Iron	-11.2163
▁Milan	-11.2163
▁baby	-11.2163
▁assure	-11.2164
▁dark	-11.2164
▁Spring	-11.2166
▁stadium	-11.2166
▁stockholder	-11.2167
▁trimm	-11.2171
▁negotiate	-11.2171
▁satellite	-11.2175
▁technologi	-11.2176
▁moo	-11.2176
▁Montreal	-11.2176
▁voluntar	-11.2176
▁privilege	-11.2176
▁cyclical	-11.2176
▁Sak	-11.2176
▁establishment	-11.2177
▁attendant	-11.2177
▁Hy	-11.218
▁coin	-11.2187
▁Has	-11.2188
▁compli	-11.2193
cam	-11.2194
▁tighten	-11.2195
▁Cie	-11.2201
ollar	-11.2206
intervention	-11.2208
▁indict	-11.2212
▁Bri	-11.222
▁landing	-11.2224
do	-11.2227
ancer	-11.2229
▁Gamb	-11.2229
▁poly	-11.2234
▁Cran	-11.2234
lie	-11.224
▁8.7	-11.2245
▁Gren	-11.2246
▁0.5	-11.2254
▁Value	-11.2255
▁cont	-11.2262
▁equit	-11.2263
▁barr	-11.2263
▁Euroco	-11.2263
mmons	-11.2276
▁beef	-11.2277
▁Gate	-11.2285
▁PS	-11.2303
▁5\/	-11.2312
▁occasional	-11.2313
deau	-11.2335
▁Lipp	-11.2339
▁smoking	-11.234
6.1	-11.2345
▁Mack	-11.235
oo	-11.2351
▁omit	-11.2358
▁Sell	-11.2364
nick	-11.2369
▁relieve	-11.238
▁cri	-11.2395
▁pop	-11.2396
▁polls	-11.2398
fell	-11.2408
ocal	-11.2416
ade	-11.2419
▁unclea	-11.2421
▁Beer	-11.2432
DT	-11.2447
▁decid	-11.2447
beat	-11.245
tar	-11.2452
nson	-11.2458
▁arrange	-11.2458
ub	-11.2458
▁drawing	-11.2461
▁gyrati	-11.2467
▁5.2	-11.2469
▁Kan	-11.2477
produc	-11.2478
dden	-11.2478
ubic	-11.248
▁Members	-11.2491
▁pictures	-11.2499
IAL	-11.2499
▁92	-11.2505
then	-11.2509
roll	-11.2509
▁stabilize	-11.2512
▁occasion	-11.2541
▁Kra	-11.2543
▁heads	-11.2548
▁rolling	-11.2551
▁Lab	-11.2552
▁Hoe	-11.2553
paid	-11.2562
▁100-	-11.2573
century	-11.2575
ji	-11.2576
friend	-11.2576
ake	-11.258
leading	-11.258
strong	-11.2582
▁meaning	-11.2585
phone	-11.2585
distance	-11.2594
ep	-11.2606
▁capitalist	-11.2608
ent	-11.2619
ris	-11.262
▁Roug	-11.2625
▁Advertis	-11.2626
▁quantit	-11.2628
▁bondhold	-11.2635
▁Ta	-11.2642
▁paint	-11.2642
nk	-11.2649
ita	-11.265
▁breed	-11.2655
▁belong	-11.2666
2.2	-11.2666
▁Chan	-11.2678
▁panic	-11.2681
▁Sacr	-11.2683
▁luc	-11.2687
▁litera	-11.2698
▁bomb	-11.2703
▁Republic	-11.2704
achinist	-11.2708
▁Account	-11.2708
▁Agnelli	-11.2708
▁Ciba	-11.2708
▁Engineer	-11.2708
▁Graphic	-11.2708
▁Helmsley	-11.2708
▁Minpeco	-11.2708
▁buoy	-11.2708
▁desperate	-11.2708
▁gift	-11.2708
▁gradual	-11.2708
▁improper	-11.2708
▁pesticide	-11.2708
▁phenomen	-11.2708
▁proportion	-11.2708
▁revamp	-11.2708
▁tremor	-11.2708
▁unnecessar	-11.2708
▁vaccine	-11.2708
▁Consider	-11.2708
▁inevitabl	-11.2708
▁chunk	-11.2708
▁drain	-11.2708
▁Exclud	-11.2708
▁salarie	-11.2708
▁adapt	-11.2708
▁Arkansas	-11.2709
▁shadow	-11.2709
▁hamper	-11.2709
▁Export	-11.2709
▁divert	-11.2709
▁Hotel	-11.2709
▁desert	-11.2709
▁Anthon	-11.2709
▁Broker	-11.2709
▁Solidarity	-11.2709
▁sister	-11.2709
▁steer	-11.2709
▁painful	-11.2709
▁basketball	-11.271
▁justifie	-11.271
▁Falcon	-11.271
▁golf	-11.271
▁debu	-11.2711
▁instant	-11.2711
▁Fift	-11.2711
▁evaluation	-11.2711
▁Look	-11.2712
▁8.45	-11.2713
▁aftershock	-11.2714
▁Yama	-11.2714
▁vow	-11.2714
▁tension	-11.2716
▁breach	-11.2716
▁RU	-11.2717
nost	-11.2719
▁Space	-11.272
▁1,500	-11.2721
reach	-11.2722
▁dealership	-11.2723
▁crew	-11.2726
▁amend	-11.2727
vis	-11.2728
▁receivable	-11.2728
▁Dick	-11.2731
▁Else	-11.2731
▁Ska	-11.2732
▁knowledge	-11.2733
▁girl	-11.2733
utsch	-11.2734
▁Oak	-11.2735
▁quit	-11.2737
▁reinvest	-11.274
▁spy	-11.2748
▁negotiator	-11.2751
1.9	-11.2751
▁accommodate	-11.2752
▁sick	-11.2755
▁Buy	-11.2761
▁Utilit	-11.2768
rofessional	-11.2769
▁calculat	-11.2774
▁tariff	-11.2775
▁Yield	-11.2775
▁song	-11.2777
▁boat	-11.2777
▁aluminum	-11.2778
▁floating	-11.2783
▁publicity	-11.2785
▁Mello	-11.2787
6,000	-11.2791
▁soften	-11.2795
▁Gru	-11.2796
▁Ex	-11.2801
▁5.1	-11.2809
▁corrupt	-11.2812
▁fr	-11.2813
▁Roh	-11.2818
▁penny	-11.2819
heed	-11.2822
▁teach	-11.2834
ala	-11.2837
bro	-11.2851
▁Ro	-11.2857
▁duck	-11.2863
ata	-11.2868
▁violat	-11.2885
▁5.6	-11.2891
▁Opp	-11.2897
ansas	-11.2901
▁Cor	-11.2903
ERS	-11.2904
▁visibl	-11.2906
▁5.4	-11.2906
▁stabiliz	-11.2916
banking	-11.2919
fluent	-11.292
shed	-11.292
▁111	-11.2921
▁0.7	-11.2929
▁Commod	-11.2935
▁provider	-11.2945
▁shore	-11.2949
ether	-11.2956
iko	-11.2956
▁Sil	-11.2957
▁exclude	-11.2971
▁substitute	-11.2971
Fed	-11.2972
ET	-11.2972
estle	-11.298
▁communist	-11.2981
9.8	-11.2983
tel	-11.2985
ue	-11.2988
18	-11.2994
▁prov	-11.3009
ina	-11.3013
▁body	-11.3015
▁Can	-11.3032
ogue	-11.3034
story	-11.3042
▁Clar	-11.3045
▁packaged	-11.3049
▁62.5	-11.3053
▁Sch	-11.3056
sight	-11.3061
au	-11.3071
▁frame	-11.3082
liance	-11.3088
.9	-11.3092
oil	-11.3098
iness	-11.3101
▁treasur	-11.3103
handler	-11.3107
▁trick	-11.311
▁Carn	-11.3124
4.3	-11.3128
▁refin	-11.3133
erts	-11.3136
▁Broad	-11.3138
.23	-11.3139
▁Dem	-11.3146
▁fun	-11.3151
▁locate	-11.3158
▁7.4	-11.316
cal	-11.3164
type	-11.3164
▁repeat	-11.3169
▁submit	-11.3172
▁Su	-11.3173
▁Don	-11.3175
▁Pf	-11.3182
▁sweep	-11.3184
wealth	-11.3188
ni	-11.319
▁content	-11.319
▁im	-11.3191
ping	-11.3194
court	-11.3205
▁Par	-11.3205
▁gather	-11.3206
group	-11.3208
burg	-11.3208
ong	-11.3211
set	-11.3212
definition	-11.3215
ual	-11.3216
▁0.4	-11.3221
▁engag	-11.3226
▁accelerat	-11.323
▁tradition	-11.3234
▁symbol	-11.3238
etter	-11.3239
chi	-11.3247
▁hall	-11.3247
▁island	-11.3251
▁rational	-11.3254
▁slip	-11.3257
▁Bever	-11.3259
625	-11.3265
▁Pri	-11.3265
party	-11.3276
▁Cuba	-11.3283
▁Rubi	-11.3291
homa	-11.3292
▁chart	-11.3296
▁Temple	-11.3297
▁adverse	-11.3297
▁anxiet	-11.3297
▁computing	-11.3297
▁discretion	-11.3297
▁dissident	-11.3297
▁explosion	-11.3297
▁soybean	-11.3297
▁striking	-11.3297
▁cholesterol	-11.3297
▁cocoa	-11.3297
▁fierce	-11.3297
▁latter	-11.3297
▁drove	-11.3297
▁Hoffman	-11.3297
▁repeal	-11.3297
▁Project	-11.3297
▁deserve	-11.3297
▁unsettl	-11.3297
▁Toky	-11.3297
▁merit	-11.3297
▁textile	-11.3297
▁physician	-11.3297
▁salary	-11.3297
▁random	-11.3297
▁Memori	-11.3297
▁cotton	-11.3297
Geig	-11.3297
▁province	-11.3297
▁niche	-11.3297
▁unfortunate	-11.3297
▁clothe	-11.3298
▁introduction	-11.3298
▁supermarket	-11.3298
▁Richter	-11.3298
▁burst	-11.3298
▁columnist	-11.3299
▁justify	-11.3299
▁boiler	-11.3299
▁Special	-11.3299
▁honest	-11.3299
▁enem	-11.3299
tachi	-11.33
▁stunn	-11.33
▁dinner	-11.33
▁plain	-11.33
▁brick	-11.33
▁1969	-11.3301
▁excessive	-11.3301
▁Fitz	-11.3301
▁Issu	-11.3303
▁consolidation	-11.3303
▁OF	-11.3303
▁Neb	-11.3304
▁headline	-11.3305
▁superior	-11.3305
▁precise	-11.3305
▁Given	-11.3306
oliday	-11.3308
▁pile	-11.331
▁Lex	-11.3311
▁installation	-11.3311
▁strange	-11.3312
▁Book	-11.3313
▁Frederic	-11.3314
▁gray	-11.3314
▁flu	-11.3315
clothing	-11.3315
▁RTC	-11.3316
▁Cine	-11.3317
▁photograph	-11.3319
▁registration	-11.3323
▁immune	-11.3324
finiti	-11.3324
▁Along	-11.3324
▁felon	-11.333
.01	-11.3331
▁arra	-11.3332
▁endors	-11.3332
▁selection	-11.3334
CC	-11.334
▁theft	-11.334
▁Kim	-11.334
▁Marv	-11.3341
▁prediction	-11.3345
▁rebuild	-11.3351
gart	-11.3358
▁God	-11.3365
▁chemist	-11.3368
▁shelter	-11.3368
▁mega	-11.3369
▁forget	-11.3371
▁150,000	-11.3371
▁revision	-11.3372
30	-11.3376
▁grounds	-11.3378
▁percent	-11.3383
▁103	-11.3383
etta	-11.3387
▁sour	-11.3387
hung	-11.3388
▁outsider	-11.3388
▁clearance	-11.339
.07	-11.34
hing	-11.3412
▁forfeiture	-11.3414
▁Sass	-11.342
port	-11.3421
thal	-11.3427
▁Gould	-11.3429
▁roller	-11.3431
▁Flo	-11.3434
▁glas	-11.3435
▁finger	-11.3436
▁fo	-11.3447
▁Lion	-11.3448
▁journal	-11.3448
▁Cand	-11.3448
aval	-11.3453
uso	-11.3457
▁tuition	-11.3458
▁neck	-11.346
vi	-11.3463
CO	-11.3463
▁Nation	-11.3464
▁refugee	-11.3466
▁allege	-11.3473
▁infect	-11.3477
.42	-11.3478
▁lagg	-11.348
▁beneficiar	-11.3482
▁depositor	-11.3508
▁flash	-11.3522
▁creation	-11.3533
▁Walk	-11.3533
▁hide	-11.3535
regon	-11.3538
▁Super	-11.354
▁pleas	-11.3553
ere	-11.3556
eta	-11.3557
▁consume	-11.3561
ja	-11.3563
ager	-11.3565
▁leg	-11.3573
\/2	-11.3576
▁Ric	-11.3582
ON	-11.3585
▁solicit	-11.3588
▁fi	-11.3589
▁Stockhol	-11.3607
SE	-11.3607
▁designer	-11.361
▁replac	-11.3624
▁mess	-11.3629
ges	-11.363
▁demonstrat	-11.3631
▁observe	-11.3638
▁bother	-11.3641
▁translate	-11.3643
85	-11.367
▁science	-11.3677
ome	-11.3694
▁Fre	-11.3695
pass	-11.37
▁Em	-11.3705
fus	-11.3712
ette	-11.3717
ge	-11.3721
▁born	-11.3725
6.8	-11.3727
▁Metal	-11.3738
▁infringe	-11.3738
▁Jer	-11.3741
▁hedge	-11.3744
▁terminate	-11.3754
▁bon	-11.376
▁Ben	-11.378
▁march	-11.3787
bon	-11.3793
terest	-11.3794
ulli	-11.38
nad	-11.3801
collar	-11.3806
building	-11.3809
▁exploit	-11.3817
▁comfort	-11.3817
▁91	-11.3819
▁violen	-11.3819
avy	-11.3822
▁Carol	-11.383
center	-11.384
▁challeng	-11.3844
train	-11.3849
quote	-11.385
▁architect	-11.3853
specifi	-11.3855
Contra	-11.3856
▁Ch	-11.3857
minute	-11.387
adjust	-11.387
Peters	-11.3873
▁listing	-11.3875
▁sweeten	-11.3876
▁Bruc	-11.388
▁conclud	-11.3881
▁satisfact	-11.3882
guide	-11.3883
▁boy	-11.3891
enfeld	-11.3894
▁drag	-11.3904
rage	-11.3907
handed	-11.3907
▁0.9	-11.391
5.7	-11.391
▁birth	-11.3912
▁Bro	-11.3912
▁convention	-11.3913
▁Bett	-11.3913
▁object	-11.3915
equity	-11.3917
atrice	-11.3917
▁divers	-11.3918
▁reinforce	-11.3918
▁psycholog	-11.3921
▁Polit	-11.3921
4.5	-11.3921
▁Representative	-11.3922
▁condemn	-11.3922
▁definite	-11.3922
▁female	-11.3922
▁grocer	-11.3922
▁harvest	-11.3922
▁incorrect	-11.3922
▁symptom	-11.3922
▁territor	-11.3922
▁arbitrat	-11.3922
▁perestro	-11.3922
▁qualify	-11.3922
▁valid	-11.3922
▁accompany	-11.3922
▁constitute	-11.3922
▁joke	-11.3922
▁married	-11.3922
▁specify	-11.3922
▁Irish	-11.3922
▁excuse	-11.3922
▁laptop	-11.3922
▁supercomputer	-11.3922
▁mandatory	-11.3922
▁Chevrolet	-11.3922
▁mild	-11.3922
▁knight	-11.3922
▁gear	-11.3922
▁excel	-11.3922
▁comprehensive	-11.3922
▁fortune	-11.3922
▁Through	-11.3923
▁Seattle	-11.3923
▁insulin	-11.3923
▁Bancorp	-11.3923
▁interstate	-11.3923
▁Socialist	-11.3923
▁vessel	-11.3923
▁Suisse	-11.3923
▁crunch	-11.3923
▁drift	-11.3924
▁Night	-11.3924
urich	-11.3924
▁Game	-11.3924
▁Middle	-11.3925
▁Manila	-11.3925
▁galler	-11.3926
▁shout	-11.3926
▁craz	-11.3927
crof	-11.3928
▁Private	-11.3928
▁coach	-11.3928
▁Guarantee	-11.3928
▁transition	-11.3931
3.5	-11.3931
▁completion	-11.3931
▁Natural	-11.3931
gnos	-11.3932
▁overcome	-11.3933
▁smart	-11.3935
▁Cab	-11.3935
▁literal	-11.3936
▁uncover	-11.3936
▁Rode	-11.3938
▁Cuban	-11.3939
▁Building	-11.394
▁sample	-11.3941
▁Manager	-11.3941
▁construct	-11.3942
▁Met	-11.3942
▁fad	-11.3943
▁upset	-11.3947
▁homeowner	-11.395
▁rep	-11.3951
▁Cana	-11.3951
▁Ver	-11.3953
▁dependent	-11.3953
▁radi	-11.3955
▁evaluate	-11.3958
▁physical	-11.3958
▁Femin	-11.396
▁overwhelming	-11.3962
▁Parker	-11.3963
▁Walt	-11.3965
▁stiff	-11.3968
nstitution	-11.3968
wearing	-11.3973
▁pall	-11.3974
▁Forest	-11.3976
▁Rand	-11.3978
hook	-11.3984
ika	-11.3987
▁Fort	-11.399
▁Venture	-11.3991
▁informal	-11.3991
ron	-11.3991
▁advisor	-11.3995
going	-11.3995
▁inclin	-11.3997
▁diversifi	-11.3997
▁fool	-11.3999
26	-11.4
▁induce	-11.4001
▁cloud	-11.4006
▁Hend	-11.4011
▁restraint	-11.4015
iston	-11.4018
▁troubl	-11.403
▁anger	-11.4035
▁Ala	-11.4041
▁View	-11.4047
ircuit	-11.4047
▁billing	-11.4053
▁landscape	-11.4054
▁foresee	-11.406
▁minimal	-11.4068
▁Iv	-11.4069
▁Ven	-11.4071
phy	-11.4075
▁Gu	-11.4077
▁inner	-11.409
▁fifth	-11.4097
▁bias	-11.41
▁Clark	-11.4108
production	-11.4115
▁appreciate	-11.4119
700	-11.4123
▁printer	-11.4128
▁borrower	-11.4139
EPA	-11.4147
7.5	-11.4147
99	-11.4148
ION	-11.415
▁protester	-11.415
▁Byr	-11.4158
▁experienc	-11.4159
▁mandate	-11.416
▁Ana	-11.416
due	-11.4162
imply	-11.4163
▁bounce	-11.4169
▁ideolog	-11.4173
65	-11.4179
1.75	-11.4186
face	-11.4189
itz	-11.4195
▁shell	-11.4195
1,000	-11.4196
hink	-11.4197
preciation	-11.4204
▁arrang	-11.4209
▁hero	-11.4211
▁inch	-11.4215
▁covert	-11.4229
nted	-11.4238
▁saving	-11.4239
mill	-11.4249
uc	-11.4249
2.1	-11.4249
▁pen	-11.4255
▁Jerr	-11.4256
▁Tuc	-11.4257
▁destructi	-11.427
ah	-11.4281
▁119	-11.4283
▁vision	-11.4294
▁stream	-11.4297
▁4.1	-11.4307
muel	-11.4314
gi	-11.4326
▁undermine	-11.4327
ken	-11.4332
▁Mor	-11.4337
▁favorabl	-11.4358
▁Hambr	-11.4372
6.9	-11.4376
▁leak	-11.4382
▁Pas	-11.4398
pper	-11.4405
▁tout	-11.4406
otic	-11.441
▁estimat	-11.4414
lew	-11.4414
▁tumble	-11.4422
▁exceeding	-11.4423
▁embrace	-11.4434
▁stone	-11.4439
▁650	-11.4441
ological	-11.4443
▁lure	-11.4447
-50	-11.4456
▁congressm	-11.4465
▁memo	-11.4469
TM	-11.4469
▁Pay	-11.4473
▁devote	-11.4474
▁chor	-11.4479
▁scam	-11.448
▁notabl	-11.4483
nett	-11.4484
▁beach	-11.4486
recurr	-11.4488
60	-11.4495
tro	-11.4496
▁9.7	-11.4498
▁109	-11.4511
usch	-11.4534
▁Mat	-11.4541
▁Dono	-11.4549
iz	-11.4549
▁recording	-11.4549
▁106	-11.4556
▁sweet	-11.4569
closed	-11.457
dson	-11.4573
efficient	-11.4579
echt	-11.4582
▁viru	-11.4582
▁furni	-11.4584
abortion	-11.4585
▁drama	-11.4587
▁Mississippi	-11.4588
▁Similar	-11.4588
▁abrupt	-11.4588
▁constituent	-11.4588
▁fraudulent	-11.4588
▁simultaneous	-11.4588
▁swift	-11.4588
▁Consolidat	-11.4588
▁guerrilla	-11.4588
▁helicopter	-11.4588
▁mushroom	-11.4588
▁necessit	-11.4588
▁twist	-11.4588
quibb	-11.4588
▁Annual	-11.4588
▁Daimler	-11.4588
▁Follow	-11.4588
▁Previous	-11.4588
▁prosper	-11.4588
▁bourbon	-11.4589
▁Program	-11.4589
▁Abrams	-11.4589
IMA	-11.4589
▁replie	-11.4589
▁Bryan	-11.4589
▁disobe	-11.4589
▁shipyard	-11.4589
▁Bristol	-11.4589
▁implie	-11.4589
▁accurate	-11.4589
▁capabilit	-11.4589
▁Kingdom	-11.4589
▁magnetic	-11.4589
▁champion	-11.4589
▁Where	-11.4589
▁copyright	-11.4589
▁deregulat	-11.459
dience	-11.459
▁Genetic	-11.459
eligi	-11.459
▁surrender	-11.459
▁prolong	-11.459
▁accomplish	-11.459
Duffie	-11.4591
▁empire	-11.4591
▁Wilson	-11.4591
▁Holland	-11.4592
▁unload	-11.4593
▁guest	-11.4593
▁rice	-11.4593
▁7.90	-11.4593
ioneer	-11.4593
▁comic	-11.4594
▁Peru	-11.4594
▁Alfred	-11.4594
▁Grace	-11.4595
RED	-11.4596
▁outlay	-11.4597
▁cheer	-11.4597
▁Guz	-11.4598
▁Personal	-11.4598
▁1950	-11.4598
▁donat	-11.4599
▁dust	-11.4601
▁1998	-11.4602
▁clinical	-11.4604
▁Manc	-11.4605
▁pointed	-11.4605
▁dragg	-11.4611
▁87.5	-11.4611
▁CF	-11.4611
▁nerve	-11.4612
American	-11.4613
▁disturb	-11.4615
▁potato	-11.4618
▁shield	-11.4618
▁Sierra	-11.4618
▁cultural	-11.4618
fat	-11.4618
▁fetch	-11.4618
away	-11.4619
▁admission	-11.4619
▁Rican	-11.4623
▁manner	-11.4625
capitalization	-11.4626
▁doors	-11.4629
▁sixth	-11.4637
home	-11.4642
▁Benn	-11.4645
▁Texan	-11.4646
▁breaker	-11.4648
mbass	-11.465
3.9	-11.4653
▁Kerr	-11.4655
ene	-11.4656
▁soil	-11.4657
▁epi	-11.4659
▁Rain	-11.4661
environmentalist	-11.4663
▁Antoni	-11.4667
▁25,000	-11.4667
▁fulfill	-11.4669
▁transplant	-11.4669
▁examination	-11.4671
▁Bron	-11.4671
▁College	-11.4672
buster	-11.4677
▁explore	-11.4677
iff	-11.4678
▁Hol	-11.468
▁Russ	-11.4685
▁battery	-11.4697
▁Late	-11.4702
▁intra	-11.4703
tory	-11.4703
▁comply	-11.4704
.66	-11.4705
▁kron	-11.4707
quare	-11.4713
▁script	-11.4722
▁pocket	-11.4723
▁proclaim	-11.4724
fication	-11.4725
inches	-11.4736
▁please	-11.4738
▁Cities	-11.4746
▁Gre	-11.4754
▁Mont	-11.4761
erous	-11.4764
lov	-11.4765
▁Winne	-11.4765
▁NATION	-11.4767
▁TR	-11.4767
▁Palestinian	-11.4776
3.1	-11.4782
▁Cooper	-11.4785
▁scrambl	-11.4787
▁span	-11.4794
▁Bud	-11.4807
▁posting	-11.4809
▁6,000	-11.4817
maid	-11.4829
▁profile	-11.483
▁marketer	-11.4846
▁skin	-11.4854
▁sil	-11.4855
▁execut	-11.4865
▁achiev	-11.4866
irport	-11.4867
▁scaled	-11.4884
▁Chir	-11.4894
downs	-11.4895
ott	-11.4919
▁bold	-11.4924
▁shoes	-11.4925
unt	-11.4926
▁arch	-11.4929
han	-11.4933
▁thick	-11.4936
0.1	-11.4946
▁recorder	-11.4946
▁135	-11.4958
po	-11.4961
▁discourag	-11.4963
rated	-11.4965
23	-11.4983
our	-11.4999
▁8.9	-11.5002
,400	-11.5006
▁Ski	-11.5025
burgh	-11.5027
▁Te	-11.503
nex	-11.5036
ped	-11.5043
tcher	-11.5044
▁examine	-11.5045
hills	-11.5046
▁11.5	-11.5049
▁expos	-11.5051
▁delegati	-11.5056
1.5	-11.5058
4.2	-11.5071
▁Bon	-11.5074
ga	-11.5082
▁pu	-11.5108
▁Comp	-11.5108
▁ti	-11.5108
▁Col	-11.5127
68	-11.5128
▁wis	-11.5129
▁Sher	-11.5135
▁Minne	-11.5136
craft	-11.5136
▁deck	-11.514
▁buck	-11.5141
▁Bur	-11.5142
ES	-11.5144
pac	-11.5147
▁incorporate	-11.5148
vas	-11.5154
dney	-11.5161
▁discriminat	-11.5165
▁prop	-11.5174
ax	-11.5183
▁underst	-11.5183
▁pain	-11.519
nation	-11.5197
▁hate	-11.5204
▁Pro	-11.5205
jury	-11.5218
og	-11.522
hip	-11.5232
▁gambl	-11.5234
▁spur	-11.5234
▁Marl	-11.5237
2.4	-11.5237
▁Bros	-11.524
▁Read	-11.525
WA	-11.5252
▁excit	-11.5254
▁tea	-11.5255
6.4	-11.526
▁coat	-11.5262
light	-11.5262
nacle	-11.5271
▁spare	-11.5274
solvent	-11.5276
mile	-11.5276
nier	-11.5279
▁Maz	-11.5285
▁spott	-11.5286
▁Colombia	-11.5287
▁Shop	-11.5288
▁Fa	-11.5291
▁invent	-11.5291
asualty	-11.5292
▁REA	-11.5293
▁recogni	-11.5299
oursel	-11.5299
▁classic	-11.53
ny	-11.5301
conscious	-11.5301
▁rail	-11.5301
▁Prince	-11.5302
▁Edelman	-11.5303
▁Lauder	-11.5303
▁Louisiana	-11.5303
▁Mountain	-11.5303
▁administrator	-11.5303
▁chromosome	-11.5303
▁depict	-11.5303
▁genuine	-11.5303
▁hurdle	-11.5303
▁misrepresent	-11.5303
▁predecessor	-11.5303
▁rebate	-11.5303
▁regret	-11.5303
▁satisfy	-11.5303
▁scuttle	-11.5303
▁uniform	-11.5303
▁unravel	-11.5303
▁variation	-11.5303
▁volunteer	-11.5303
▁jitter	-11.5303
▁microprocessor	-11.5303
▁terribl	-11.5303
▁Pakistan	-11.5303
▁minicomputer	-11.5303
▁Exterior	-11.5303
▁reckless	-11.5303
▁Cranston	-11.5303
▁ballot	-11.5303
▁Fried	-11.5303
▁inadequate	-11.5303
▁intimate	-11.5303
▁petition	-11.5303
▁clerk	-11.5303
▁rigid	-11.5303
▁disorder	-11.5303
▁Rubber	-11.5303
▁Play	-11.5303
▁ocean	-11.5303
▁greenhouse	-11.5303
▁shoot	-11.5303
▁curtail	-11.5303
IFIC	-11.5303
▁Employee	-11.5303
▁Schwarz	-11.5303
▁Sugarman	-11.5304
arbide	-11.5304
▁Worth	-11.5304
▁devise	-11.5304
▁LIB	-11.5304
▁deliberate	-11.5304
ulu	-11.5304
▁outflow	-11.5304
▁impressive	-11.5304
▁Kohl	-11.5304
▁spinoff	-11.5305
▁isolate	-11.5305
▁fancy	-11.5306
▁metro	-11.5306
▁overrid	-11.5306
▁conspir	-11.5306
▁PWA	-11.5307
▁balk	-11.5307
▁collective	-11.5307
▁highlight	-11.5307
▁anxious	-11.5307
▁solicitation	-11.5308
▁prize	-11.5308
▁Yale	-11.5308
▁inspector	-11.5308
▁Swede	-11.5309
▁laid	-11.5309
▁bearing	-11.5309
▁objection	-11.5309
▁Berg	-11.531
▁episode	-11.531
▁royalt	-11.5313
▁pure	-11.5313
▁Brew	-11.5314
▁native	-11.5316
▁Andrew	-11.5317
▁Production	-11.5317
▁Colombian	-11.5318
▁tissue	-11.532
violent	-11.532
▁Thur	-11.5321
▁accumulat	-11.5321
vale	-11.5322
▁sagg	-11.5323
▁tab	-11.5324
iful	-11.5329
▁sedan	-11.5331
▁13.1	-11.5333
▁utiliz	-11.5334
▁unanimous	-11.5334
▁evident	-11.5335
▁pencil	-11.5335
▁temperature	-11.5335
▁radar	-11.5335
▁Guin	-11.5337
▁IN	-11.5338
▁Few	-11.5339
▁145	-11.5343
▁interpretation	-11.5343
▁hole	-11.5345
▁pipe	-11.5347
▁fled	-11.5347
▁worsen	-11.5349
bike	-11.535
barrel	-11.5352
game	-11.5353
active	-11.5355
Canada	-11.5355
family	-11.5355
cancer	-11.5355
lawyer	-11.5357
▁Fra	-11.5357
▁Blue	-11.5358
fall	-11.536
▁bacteria	-11.5367
▁athletic	-11.5371
nfortunate	-11.5373
▁fishing	-11.5375
enactment	-11.5377
hand	-11.5377
disk	-11.5381
▁Lesk	-11.5384
.77	-11.5384
▁concentrat	-11.5386
icki	-11.5389
3.3	-11.5394
▁sleep	-11.5396
▁youth	-11.5396
gas	-11.5397
▁exo	-11.5398
▁Are	-11.5398
▁MO	-11.5401
upert	-11.5409
▁investigate	-11.5414
stat	-11.5421
pound	-11.5422
▁tap	-11.5426
▁grave	-11.5427
▁240	-11.5429
▁cleaner	-11.5432
▁coordinate	-11.5434
ORE	-11.5436
▁lett	-11.5445
3.7	-11.5447
▁Ny	-11.5451
pul	-11.5453
▁performer	-11.5461
▁7.98	-11.5464
▁downgrade	-11.5468
▁earning	-11.5478
▁107	-11.548
▁Clea	-11.5483
ignal	-11.5493
▁8.6	-11.5498
▁dry	-11.5503
▁athlete	-11.5505
uck	-11.5507
8.2	-11.5513
euser	-11.5514
▁15.6	-11.5514
ica	-11.5517
▁mile	-11.5522
▁wheel	-11.5531
worker	-11.5532
dealer	-11.5539
▁ball	-11.5549
▁exempt	-11.5559
gene	-11.5559
▁designate	-11.556
development	-11.5562
▁0.6	-11.5564
cean	-11.5566
▁placement	-11.5581
▁roadway	-11.5602
lay	-11.5602
▁pessimist	-11.5604
▁erode	-11.5606
▁camp	-11.5608
▁Tai	-11.5609
▁underscore	-11.5615
iabetic	-11.5621
uant	-11.5624
▁carbon	-11.5625
▁supervis	-11.5626
▁Gree	-11.5638
▁1.15	-11.5638
star	-11.5641
▁lesson	-11.5644
▁160	-11.5645
▁inspire	-11.565
kem	-11.5653
▁upgrade	-11.5655
ecurity	-11.566
▁fines	-11.5662
cceptance	-11.5672
▁Pipe	-11.5675
qua	-11.5677
▁proof	-11.5686
oral	-11.5687
▁modernize	-11.5688
▁text	-11.5694
▁194	-11.5694
▁Ty	-11.57
fman	-11.5708
print	-11.5711
▁486	-11.5718
▁monopol	-11.5726
▁AM	-11.5727
ater	-11.573
nuts	-11.5733
7.2	-11.5737
▁6.1	-11.5738
▁clearing	-11.5741
▁Berr	-11.5741
.88	-11.5745
▁Tri	-11.575
▁Add	-11.5753
▁waive	-11.576
dall	-11.5765
person	-11.5773
▁capture	-11.5774
▁computeriz	-11.5781
7.7	-11.5793
tact	-11.5797
uous	-11.582
49	-11.5824
amin	-11.583
stick	-11.5835
bi	-11.5838
▁forth	-11.5841
▁230	-11.5846
29	-11.5853
▁pot	-11.5867
▁plot	-11.5871
▁Inco	-11.5876
▁woo	-11.5878
67	-11.5881
ko	-11.5886
ming	-11.5892
▁LO	-11.5894
itarian	-11.5896
▁Sid	-11.5897
ANCE	-11.5917
nkel	-11.5924
▁Hop	-11.5928
itis	-11.5929
▁475	-11.593
▁coordinat	-11.5932
▁pin	-11.5938
▁rein	-11.5947
▁Marc	-11.595
▁deni	-11.595
rman	-11.5954
▁9.4	-11.596
mento	-11.5984
▁plung	-11.5991
ustin	-11.6005
7.8	-11.6018
▁Au	-11.6021
▁Note	-11.6025
mar	-11.6026
▁vo	-11.6043
▁builder	-11.6047
▁Tenn	-11.605
▁restrain	-11.6051
▁micro	-11.6052
▁Cole	-11.6054
▁Ship	-11.606
▁sympath	-11.6062
▁impress	-11.6065
▁Hawaii	-11.6066
wort	-11.6067
▁habit	-11.6067
▁siz	-11.6067
mprehensive	-11.6071
union	-11.6071
minent	-11.6071
▁Afghanistan	-11.6072
▁Amsterdam	-11.6072
▁Calgary	-11.6072
▁Fernand	-11.6072
▁Portfolio	-11.6072
▁Reform	-11.6072
▁appliance	-11.6072
▁illustration	-11.6072
▁infrastructur	-11.6072
▁irresponsibl	-11.6072
▁perceive	-11.6072
▁platform	-11.6072
▁satisfie	-11.6072
▁verdict	-11.6072
▁wreck	-11.6072
▁Hamilton	-11.6072
▁neglect	-11.6072
▁Critic	-11.6072
▁Stuart	-11.6072
▁cereal	-11.6072
▁harsh	-11.6072
▁nominal	-11.6072
▁INTER	-11.6072
▁dispatch	-11.6072
▁Somali	-11.6072
▁proxy	-11.6072
▁Shareholder	-11.6072
▁exclusion	-11.6072
▁Vietnamese	-11.6072
▁western	-11.6072
▁Chug	-11.6072
▁robot	-11.6072
▁Construction	-11.6072
▁erupt	-11.6072
▁Dicta	-11.6072
▁discrepanc	-11.6072
ERT	-11.6072
▁authorization	-11.6072
▁abolish	-11.6072
▁presiden	-11.6072
▁prestig	-11.6073
▁audio	-11.6073
▁Viol	-11.6073
▁vendor	-11.6073
▁wound	-11.6073
▁Mercedes	-11.6074
▁plate	-11.6074
▁newsprint	-11.6074
▁cabinet	-11.6074
▁12.4	-11.6074
,600	-11.6075
▁Speaker	-11.6076
▁Grow	-11.6076
▁mineral	-11.6076
▁exhibition	-11.6077
▁snapp	-11.6077
▁vacation	-11.6077
▁impression	-11.6078
▁pair	-11.6078
▁brisk	-11.6078
▁Glenn	-11.6079
▁trustee	-11.6079
suppressor	-11.6079
▁notifi	-11.608
▁mall	-11.608
▁Master	-11.608
▁repayment	-11.608
▁scarce	-11.6081
NEY	-11.6082
▁Phil	-11.6082
▁Activit	-11.6083
▁Maur	-11.6083
▁fastest	-11.6084
▁Knight	-11.6085
▁fix	-11.6085
▁Fall	-11.6086
▁accountant	-11.6087
▁cement	-11.6088
▁robber	-11.6088
▁BPC	-11.6091
▁Michel	-11.6092
▁alert	-11.6095
garet	-11.6095
erha	-11.6097
▁mayoral	-11.61
ppon	-11.61
▁Oh	-11.6101
▁2003	-11.6101
▁diplomat	-11.6101
▁Take	-11.6103
▁Koch	-11.6103
▁TRUST	-11.6104
▁universal	-11.6104
▁Explo	-11.6106
▁collaborat	-11.6108
▁Get	-11.6116
▁CM	-11.6118
auld	-11.6119
▁seeming	-11.6121
▁justice	-11.6126
ek	-11.6127
▁statistical	-11.6131
horn	-11.6132
▁outline	-11.6132
Pl	-11.6134
▁franchiser	-11.6134
▁vacanc	-11.6139
lf	-11.6141
▁measurement	-11.6142
▁Plann	-11.6144
▁tempt	-11.6147
aging	-11.615
minus	-11.616
▁accelerate	-11.616
qui	-11.6161
▁Y	-11.6162
▁Burt	-11.6163
▁seal	-11.6163
▁Mutual	-11.6166
▁Import	-11.6166
▁resemble	-11.6168
venture	-11.6169
load	-11.6169
▁allocation	-11.617
IP	-11.6173
operat	-11.6177
casino	-11.6178
▁Bio	-11.618
▁Bou	-11.6181
forward	-11.6181
▁outperform	-11.6182
language	-11.6183
view	-11.6184
▁proven	-11.6185
▁Drey	-11.6185
payment	-11.6188
drug	-11.6189
▁entrepreneurs	-11.6189
computer	-11.619
Soviet	-11.6191
company	-11.6191
▁7.96	-11.6191
chief	-11.6194
1.2	-11.6194
emissions	-11.6195
plann	-11.62
value	-11.6202
ology	-11.6203
tery	-11.6205
orf	-11.6207
▁Fair	-11.6211
aire	-11.6215
▁parliamentar	-11.6218
▁Miner	-11.6226
▁Stoll	-11.6228
▁worm	-11.6229
▁prescription	-11.6229
▁Montgo	-11.6229
▁Yu	-11.6229
▁Pear	-11.623
boy	-11.623
etrie	-11.6238
uist	-11.6241
fast	-11.6248
7.9	-11.6249
xin	-11.6254
▁Prospect	-11.6257
▁scare	-11.6258
▁accompanie	-11.626
▁mental	-11.6263
▁cough	-11.6264
▁Barba	-11.6265
▁Ara	-11.6265
electronics	-11.6265
▁container	-11.6271
▁Arabia	-11.6272
▁Sand	-11.6272
▁emphasize	-11.6275
▁characterize	-11.628
▁identit	-11.6284
rap	-11.6289
▁denomination	-11.6291
▁tall	-11.6297
▁distance	-11.6318
▁Sei	-11.6321
▁10.5	-11.6321
▁premier	-11.6322
ailing	-11.6339
wa	-11.634
▁142	-11.6341
1.6	-11.6342
▁entitle	-11.6342
izab	-11.6345
we	-11.635
▁wipe	-11.6351
0.7	-11.6361
bert	-11.6362
▁Garr	-11.6365
rand	-11.6368
▁streamlin	-11.6374
ehl	-11.6376
▁Rama	-11.6378
▁chas	-11.6379
nner	-11.6379
,900	-11.6381
▁Rubens	-11.6381
▁casualty	-11.6382
ographic	-11.6383
nea	-11.6384
▁CO	-11.6389
nas	-11.6392
omo	-11.64
▁touris	-11.6406
▁vi	-11.6409
4.9	-11.6418
▁observ	-11.6428
▁interfere	-11.6429
▁nav	-11.6438
iation	-11.6442
▁cooperate	-11.6443
▁Roth	-11.6444
EP	-11.6447
▁Globe	-11.6448
▁discourage	-11.6452
▁Carr	-11.6452
▁155	-11.6453
uez	-11.6459
RM	-11.6462
▁socialist	-11.6467
▁stra	-11.6469
▁rubb	-11.6474
▁materialize	-11.6475
▁dism	-11.6476
▁traveler	-11.6477
unda	-11.6481
▁utter	-11.6481
▁lawn	-11.6482
▁blast	-11.6486
6.3	-11.6493
pin	-11.6493
▁10.4	-11.652
ridge	-11.6522
lake	-11.6525
▁discriminati	-11.653
▁wi	-11.6535
earnings	-11.6538
▁invit	-11.6539
▁mo	-11.6542
SI	-11.6545
▁subsidize	-11.6546
▁finishe	-11.6551
▁Jo	-11.6555
▁Ode	-11.6556
mma	-11.6559
▁graduate	-11.657
▁aspir	-11.6577
▁pe	-11.6578
order	-11.6586
dding	-11.6595
stitution	-11.6604
ament	-11.6609
▁Found	-11.6619
im	-11.6626
▁13.8	-11.6629
7.1	-11.6629
▁stag	-11.6631
oma	-11.6637
▁beneficia	-11.6647
▁Ja	-11.6648
▁witnesse	-11.6648
▁hi	-11.666
▁scramble	-11.666
▁Victor	-11.6665
▁pale	-11.6665
▁recycl	-11.6668
▁Pel	-11.6677
▁Barre	-11.6677
4.8	-11.6679
tie	-11.6679
▁bay	-11.668
▁Minn	-11.6687
▁CALL	-11.6688
named	-11.6696
▁Shi	-11.6699
cow	-11.6702
parti	-11.6708
ev	-11.6714
▁Kor	-11.6717
▁negotia	-11.6724
▁cook	-11.6736
low	-11.6744
▁BANK	-11.6745
My	-11.675
▁recogniz	-11.6755
▁Circu	-11.6757
▁Medic	-11.6776
▁laugh	-11.6778
ntel	-11.6779
0.5	-11.6782
tier	-11.6788
▁reluctan	-11.6793
▁speculat	-11.6795
ivision	-11.6797
▁pac	-11.68
IE	-11.6811
▁179	-11.6812
ork	-11.6813
▁interi	-11.6816
▁ink	-11.682
NT	-11.6831
▁NI	-11.6835
▁cheat	-11.6836
▁0.0	-11.6848
▁Ginn	-11.6849
▁scrutin	-11.6853
onetary	-11.686
▁Ever	-11.6863
bound	-11.6863
warming	-11.6866
▁rac	-11.6874
square	-11.6874
▁contemplat	-11.6875
▁Charl	-11.6878
▁Tra	-11.6881
▁undis	-11.6887
ovo	-11.6887
▁fabric	-11.6888
▁NEW	-11.689
▁specializ	-11.6892
▁Gene	-11.6893
royal	-11.6894
enzie	-11.6895
wich	-11.6896
▁scrap	-11.6896
▁confront	-11.6897
nference	-11.6897
▁880	-11.6899
▁vacat	-11.69
▁imagine	-11.6901
randa	-11.6902
▁lag	-11.6903
▁appe	-11.6903
▁Francis	-11.6904
▁grab	-11.6904
ordan	-11.6904
▁ASSOCIAT	-11.6905
▁Campbell	-11.6905
▁Barclay	-11.6905
▁Indianapolis	-11.6905
▁Jeep	-11.6905
▁Nugget	-11.6905
▁Schroder	-11.6905
▁Semiconductor	-11.6905
▁clutter	-11.6905
▁debacle	-11.6905
▁divestiture	-11.6905
▁gloom	-11.6905
▁horizon	-11.6905
▁inherit	-11.6905
▁medicine	-11.6905
▁procedural	-11.6905
▁reservation	-11.6905
▁Spiegel	-11.6905
▁intensify	-11.6905
▁bushel	-11.6905
▁cushion	-11.6905
▁fluctuation	-11.6905
▁Retire	-11.6905
▁diversify	-11.6905
▁Stoltz	-11.6905
▁initiate	-11.6905
▁parallel	-11.6905
▁reckon	-11.6905
▁river	-11.6905
▁Axa	-11.6905
▁Owen	-11.6905
▁seizure	-11.6905
▁Academ	-11.6905
▁hinder	-11.6905
▁warehouse	-11.6905
▁mystery	-11.6905
▁earmark	-11.6905
▁Relations	-11.6905
▁Benj	-11.6906
▁psychological	-11.6906
▁PepsiCo	-11.6906
▁Lexington	-11.6906
▁Olympic	-11.6906
▁Thrift	-11.6906
▁Family	-11.6906
▁foster	-11.6906
▁Leonard	-11.6906
▁notebook	-11.6906
▁substance	-11.6906
▁echo	-11.6906
▁trim	-11.6906
▁offensive	-11.6907
▁roof	-11.6907
▁Princeton	-11.6907
▁testify	-11.6907
▁pioneer	-11.6907
▁Cambria	-11.6907
ogic	-11.6907
▁shutdown	-11.6908
▁teen	-11.6908
▁republic	-11.6908
▁smell	-11.6908
PLO	-11.6909
▁misstate	-11.6909
llate	-11.6909
▁1930	-11.6909
▁revival	-11.6909
▁Title	-11.691
rook	-11.691
▁disciplin	-11.691
▁Patt	-11.6912
▁courtroom	-11.6912
▁breakdown	-11.6912
▁innovation	-11.6913
▁Charleston	-11.6914
▁craft	-11.6914
▁scrapp	-11.6914
▁encounter	-11.6915
▁Battle	-11.6915
▁lens	-11.6916
▁decent	-11.6916
DY	-11.6916
▁insulat	-11.6916
▁Fult	-11.6917
▁custom	-11.6917
▁prospectus	-11.6919
▁Pitts	-11.6919
▁1.86	-11.6919
fledg	-11.6919
▁cataly	-11.692
Ponce	-11.692
▁Fosset	-11.6921
▁tale	-11.6923
▁Bert	-11.6924
▁detector	-11.6925
▁94	-11.6926
▁bottle	-11.6926
ventual	-11.6926
▁fertilizer	-11.6927
▁Marsh	-11.6927
▁extract	-11.6928
▁Lorin	-11.6928
▁soldier	-11.6929
▁Arb	-11.693
bart	-11.693
▁DES	-11.6932
▁exhaust	-11.6933
▁Assembly	-11.6933
▁expression	-11.6934
▁ramp	-11.6935
▁calm	-11.6936
▁spurr	-11.6937
▁DIS	-11.6938
▁cater	-11.6939
▁105	-11.694
▁2001	-11.6942
▁imbalance	-11.6943
▁dynamic	-11.6943
▁realistic	-11.6952
▁architectur	-11.6952
▁presentation	-11.6952
▁5.7	-11.6956
▁compensate	-11.6957
atra	-11.6957
▁Og	-11.6958
▁Cree	-11.6959
▁correction	-11.6962
▁Braw	-11.6963
▁McL	-11.6966
unting	-11.6966
▁scholar	-11.6966
▁1.04	-11.6967
ud	-11.697
▁readi	-11.6972
▁laboratory	-11.6973
▁Barn	-11.6982
▁candy	-11.6985
▁east	-11.6988
▁persisten	-11.6993
▁tenu	-11.6996
▁speaker	-11.6997
▁singer	-11.6998
▁hook	-11.6999
▁Gau	-11.6999
▁oat	-11.7001
RC	-11.7001
▁leather	-11.7008
▁visual	-11.7008
▁reconsider	-11.7023
36	-11.7025
▁gun	-11.7028
itter	-11.7035
born	-11.7037
bury	-11.7038
▁distribut	-11.7039
▁reuni	-11.7044
▁yes	-11.7044
investment	-11.7045
▁Wil	-11.705
▁Gray	-11.7053
▁processor	-11.7055
▁shoulder	-11.7058
▁dance	-11.7062
▁congress	-11.7063
▁remarkabl	-11.7065
rath	-11.7066
can	-11.7068
BANK	-11.7068
buck	-11.7074
▁desir	-11.7076
▁distort	-11.7076
trans	-11.7078
use	-11.7082
freight	-11.7087
▁deferr	-11.7089
ground	-11.709
▁accru	-11.7091
aver	-11.7093
crime	-11.7095
capacity	-11.7096
Stock	-11.7097
▁float	-11.7098
crash	-11.7098
brand	-11.7098
area	-11.7099
availab	-11.71
▁Jona	-11.7102
ibbe	-11.7107
▁CS	-11.7112
▁hesitat	-11.7115
lace	-11.7119
til	-11.7123
▁underwrite	-11.7123
La	-11.713
gro	-11.7133
orough	-11.7134
▁1,0	-11.7141
.46	-11.7156
▁rental	-11.717
▁1.0	-11.7178
▁identi	-11.7205
▁meat	-11.7209
▁fragil	-11.7212
▁60,000	-11.7213
▁relevan	-11.7214
ashi	-11.7216
mery	-11.7222
▁175	-11.7225
▁Kais	-11.7226
▁1.83	-11.7232
hart	-11.7234
0.4	-11.7238
▁alleg	-11.7241
3.2	-11.7242
▁lad	-11.7244
shar	-11.7247
0.6	-11.7248
▁Lind	-11.7248
▁therap	-11.7258
▁planet	-11.7259
mman	-11.7266
▁Crow	-11.7275
ension	-11.7281
▁haul	-11.7284
▁wine	-11.7294
elief	-11.7295
bit	-11.7296
OT	-11.7301
▁141.9	-11.7302
▁Ge	-11.7306
▁shipper	-11.7312
▁sh	-11.7315
▁Hess	-11.7319
bun	-11.7319
▁Ref	-11.7322
▁Cara	-11.7324
▁Bloc	-11.7336
IC	-11.7349
.38	-11.7357
63	-11.738
pr	-11.7381
▁lab	-11.7382
▁Bra	-11.7384
▁pan	-11.7387
▁Blo	-11.7404
nheim	-11.7413
oper	-11.7419
yder	-11.742
▁6.8	-11.7425
▁photos	-11.7428
eating	-11.7435
▁Bat	-11.7443
0.25	-11.7446
▁flower	-11.7448
ARS	-11.7448
▁Wi	-11.7449
5.3	-11.7464
rude	-11.7465
▁Grant	-11.7468
regulat	-11.7475
.48	-11.7476
EC	-11.7476
▁heel	-11.7478
deck	-11.7482
▁Scot	-11.7488
▁Wal	-11.7494
works	-11.7494
▁Mul	-11.75
AS	-11.7504
▁bail	-11.7505
▁Eric	-11.7506
▁Jeff	-11.751
6.6	-11.7514
▁expose	-11.7516
wer	-11.7516
▁edg	-11.7524
rais	-11.7527
bach	-11.7537
hy	-11.7549
.39	-11.7551
▁Ki	-11.7555
amble	-11.7556
▁af	-11.756
▁beside	-11.756
ches	-11.7564
BB	-11.7568
▁Pi	-11.757
▁Fujis	-11.7576
mel	-11.7577
OLL	-11.758
ethyl	-11.7584
ART	-11.7585
▁tip	-11.759
▁Town	-11.7601
▁rec	-11.7603
appoint	-11.7605
8.8	-11.7607
dwin	-11.7608
hack	-11.7615
▁subsidiz	-11.7616
▁exporter	-11.7621
lle	-11.7623
▁rat	-11.7624
▁Vol	-11.7628
uin	-11.7639
▁hid	-11.7641
mendment	-11.7654
cular	-11.7659
▁Chris	-11.7661
wart	-11.7674
adium	-11.7674
▁intervene	-11.7676
▁Lip	-11.7676
rake	-11.7683
▁Bir	-11.7684
▁Nat	-11.7687
▁9.9	-11.7697
▁consult	-11.7704
▁farms	-11.7707
▁clou	-11.7708
▁Ark	-11.7712
▁Sava	-11.7718
▁minus	-11.7726
▁Bonn	-11.773
▁refer	-11.7738
IGN	-11.7742
ider	-11.7754
vel	-11.7756
▁hunt	-11.7759
bot	-11.7763
▁qua	-11.7768
▁damag	-11.7769
NES	-11.777
▁ha	-11.7771
,200	-11.7771
▁Gel	-11.7772
▁antibod	-11.7772
atellite	-11.7775
unch	-11.7777
lude	-11.7781
▁digit	-11.7781
▁mediat	-11.7791
▁ridicul	-11.7796
▁Cambodia	-11.7798
▁surg	-11.7798
fill	-11.78
▁profession	-11.7803
ellular	-11.7805
▁Direct	-11.7806
mp	-11.7807
▁bullet	-11.7808
▁exhibit	-11.7809
lzer	-11.7809
▁alien	-11.7811
▁correspond	-11.7814
lluminat	-11.7814
ewoo	-11.7814
▁Universal	-11.7814
disproportionate	-11.7814
▁Adviser	-11.7814
▁Afghan	-11.7814
▁Assurance	-11.7814
▁Catholic	-11.7814
▁Charlotte	-11.7814
▁Friend	-11.7814
▁Jupiter	-11.7814
▁Venezuela	-11.7814
▁bellwether	-11.7814
▁confiscat	-11.7814
▁constituenc	-11.7814
▁credential	-11.7814
▁deficienc	-11.7814
▁enthusiasm	-11.7814
▁evolution	-11.7814
▁jurisdiction	-11.7814
▁scream	-11.7814
▁spawn	-11.7814
▁synthetic	-11.7814
▁technician	-11.7814
▁Appeal	-11.7814
▁clue	-11.7814
▁furrier	-11.7814
▁semiannual	-11.7814
▁Film	-11.7814
▁Popular	-11.7814
▁annuit	-11.7814
▁gesture	-11.7814
▁spouse	-11.7814
▁gridlock	-11.7814
▁unwilling	-11.7814
▁Fisher	-11.7814
▁mechanism	-11.7814
▁concert	-11.7814
▁Civil	-11.7814
▁drought	-11.7814
▁cafe	-11.7814
▁Measure	-11.7814
▁vague	-11.7814
▁Citizen	-11.7815
▁extort	-11.7815
ertussi	-11.7815
▁contrar	-11.7815
▁nickname	-11.7815
niversa	-11.7815
▁dignit	-11.7815
▁refocus	-11.7815
▁Schering	-11.7815
▁proponent	-11.7815
▁deplet	-11.7815
▁defraud	-11.7815
▁tenant	-11.7815
▁generous	-11.7815
▁infant	-11.7815
▁synd	-11.7815
▁Review	-11.7815
▁diversification	-11.7815
▁Jean	-11.7815
▁devaluation	-11.7815
▁testifie	-11.7815
platin	-11.7815
▁spun	-11.7815
▁awful	-11.7815
▁preced	-11.7815
EMA	-11.7815
▁kidney	-11.7815
▁harbor	-11.7815
▁museum	-11.7815
▁rocket	-11.7815
▁Brazilian	-11.7816
▁creature	-11.7816
▁Negotia	-11.7816
▁unhapp	-11.7816
▁Takeover	-11.7816
▁Winter	-11.7816
▁generic	-11.7816
▁reference	-11.7816
▁Anglo	-11.7816
▁ruin	-11.7816
▁clause	-11.7816
▁spell	-11.7818
▁grim	-11.7818
▁disposable	-11.7818
▁celebration	-11.7818
▁Blai	-11.7818
▁Burling	-11.7818
▁hyper	-11.7818
▁Lease	-11.7819
▁Nobel	-11.7819
▁injection	-11.7819
▁Woman	-11.782
▁Strip	-11.782
yonnais	-11.782
▁dull	-11.782
▁trash	-11.7821
▁reinforcement	-11.7821
▁Silver	-11.7821
▁Concern	-11.7821
▁Rome	-11.7821
▁reversal	-11.7822
▁exemption	-11.7822
▁Eight	-11.7822
▁differ	-11.7822
▁compact	-11.7823
IA	-11.7823
▁Treat	-11.7823
ecogni	-11.7823
▁Wom	-11.7823
cra	-11.7824
▁compell	-11.7824
aux	-11.7824
▁clash	-11.7824
YN	-11.7824
▁reput	-11.7826
OFFE	-11.7826
▁Adm	-11.7827
▁Gib	-11.7828
▁heighten	-11.7828
▁installment	-11.7828
▁13.4	-11.7829
▁Glaz	-11.7829
▁waiver	-11.7831
▁opt	-11.7831
▁innocent	-11.7831
mith	-11.7833
▁unknown	-11.7833
▁solo	-11.7834
▁inflow	-11.7836
850	-11.7836
▁passive	-11.7837
▁wrapp	-11.7838
▁Cup	-11.7839
iffer	-11.784
▁Six	-11.7843
▁delegate	-11.7843
elevision	-11.7843
▁topple	-11.7845
▁examiner	-11.7846
▁tendenc	-11.7847
▁ranch	-11.7848
▁nast	-11.785
▁2008	-11.785
1.1	-11.785
▁Steppe	-11.7851
ric	-11.7853
▁Stud	-11.7853
▁Ton	-11.7854
▁1.85	-11.7854
▁jacket	-11.7856
▁technological	-11.7856
▁Iranian	-11.7857
▁enthusiastic	-11.786
▁TRO	-11.7863
▁reconcil	-11.7863
▁devastating	-11.7866
▁brewer	-11.7868
▁dip	-11.787
▁representation	-11.787
▁chapter	-11.787
▁beta	-11.7875
▁librar	-11.7875
▁appeti	-11.7876
▁112	-11.7878
▁afterward	-11.7878
▁Spence	-11.7878
if	-11.7879
▁Keen	-11.7882
▁10.1	-11.7885
▁9.3	-11.7893
▁forgot	-11.7894
▁Simon	-11.7897
ob	-11.7903
char	-11.7905
▁Wyo	-11.7909
▁brac	-11.791
▁Generale	-11.7912
borne	-11.7912
sburg	-11.7914
eek	-11.7915
▁interior	-11.7918
▁Cair	-11.7921
BM	-11.7922
87	-11.7922
▁riders	-11.7924
▁tanker	-11.7924
▁praise	-11.7927
▁Watson	-11.7929
▁mir	-11.793
▁peddl	-11.7933
▁dol	-11.7943
▁vest	-11.7943
▁Wilm	-11.7944
even	-11.7945
▁soul	-11.7953
▁coating	-11.7961
▁Ahma	-11.7962
SIT	-11.7963
▁Bre	-11.7964
▁broaden	-11.797
▁hung	-11.7977
-10	-11.798
rik	-11.7982
▁gen	-11.7983
8.3	-11.7986
7.4	-11.7989
▁parental	-11.799
cus	-11.799
▁10.6	-11.8002
▁rig	-11.8004
▁performing	-11.8005
tice	-11.8007
▁fighter	-11.8012
▁stripped	-11.8021
▁gut	-11.8021
Donnell	-11.8022
vo	-11.8024
▁1.12	-11.8025
Scan	-11.8028
▁maximiz	-11.8028
▁Simp	-11.8029
elect	-11.8047
nic	-11.805
cz	-11.8062
▁analyze	-11.8064
2.5	-11.8064
▁Share	-11.8071
uay	-11.8072
EPO	-11.8075
▁toxic	-11.8075
▁cooperat	-11.8076
▁550	-11.8079
▁Kelly	-11.8081
NL	-11.8085
spoke	-11.8091
fashion	-11.8093
▁Media	-11.8094
trade	-11.8095
generation	-11.8096
bu	-11.8096
currency	-11.8098
country	-11.81
government	-11.81
▁Poll	-11.8101
bill	-11.8102
number	-11.8102
growth	-11.8104
account	-11.8104
irming	-11.8105
rival	-11.8106
▁13.6	-11.811
8.7	-11.8114
ERR	-11.8124
▁Wedd	-11.8125
built	-11.8129
▁Soh	-11.8133
step	-11.8135
▁pet	-11.8141
ttle	-11.8143
authorize	-11.8149
▁Kei	-11.8157
▁Iver	-11.8159
▁pa	-11.8163
▁sw	-11.8164
▁wel	-11.8167
▁sue	-11.817
▁pi	-11.8171
▁photo	-11.8179
▁skid	-11.819
relations	-11.8192
▁Soo	-11.8215
▁sway	-11.8215
▁chlor	-11.8218
▁Ore	-11.8226
12	-11.8227
lash	-11.8227
▁weapon	-11.8235
▁plu	-11.8236
▁dia	-11.8236
▁Arno	-11.8239
▁tag	-11.825
arco	-11.8251
ral	-11.8258
▁gin	-11.8262
▁Mine	-11.827
.79	-11.8279
ib	-11.8281
▁Lin	-11.8287
▁Kre	-11.8304
▁reformer	-11.8309
3.8	-11.8309
illing	-11.8317
▁revoke	-11.832
▁hedg	-11.8323
EU	-11.8334
▁0.8	-11.8334
▁capitalize	-11.8336
▁acknowledg	-11.8337
va	-11.834
▁Glob	-11.8344
net	-11.8349
3.4	-11.835
consum	-11.8353
▁mini	-11.8357
▁Pet	-11.8363
▁dedicat	-11.8365
▁Financi	-11.8373
▁82	-11.8375
nder	-11.8377
will	-11.8377
▁empt	-11.8384
ight	-11.8385
▁Kid	-11.8389
▁cure	-11.839
▁preserv	-11.8392
▁deductible	-11.8393
ipper	-11.8399
aden	-11.8401
nik	-11.8409
ock	-11.8415
vine	-11.8421
▁Ann	-11.8426
pression	-11.8427
oya	-11.8447
▁mon	-11.8453
cept	-11.8458
hoo	-11.8462
▁sponsors	-11.8464
▁Eu	-11.8465
▁12.9	-11.8465
eath	-11.8468
▁Shares	-11.8469
tered	-11.8471
zed	-11.8474
▁Vis	-11.8476
try	-11.8481
▁hail	-11.8487
▁Guard	-11.8491
NC	-11.8494
▁19.6	-11.8496
▁Week	-11.8499
▁Wach	-11.8513
▁Fle	-11.853
▁lesser	-11.8531
dge	-11.8541
▁EPO	-11.8546
▁FOR	-11.8546
1.22	-11.8552
▁Mura	-11.8552
▁Need	-11.8557
▁gainer	-11.8559
bo	-11.8564
ccidental	-11.8571
ghu	-11.8587
toric	-11.8595
anni	-11.8595
bay	-11.8605
▁measur	-11.8614
CIAL	-11.8614
▁prob	-11.8615
▁minds	-11.8629
▁guil	-11.8634
▁Spe	-11.8637
▁80-	-11.8638
▁interesting	-11.8642
▁dilute	-11.8643
utomotive	-11.8652
▁fraction	-11.8655
rian	-11.8659
▁360	-11.8659
gum	-11.8664
tique	-11.8673
rous	-11.8675
▁pose	-11.8676
▁distress	-11.8682
▁Anti	-11.8684
HO	-11.8688
uis	-11.8697
,800	-11.8702
ked	-11.8707
▁Kum	-11.8714
▁Lowe	-11.8722
▁persist	-11.8723
▁viab	-11.8726
▁vacan	-11.8727
▁Manufactur	-11.8729
▁laborator	-11.8734
▁115	-11.8735
▁sweat	-11.8739
seek	-11.8743
▁Publish	-11.8743
tain	-11.8744
▁historic	-11.8745
▁Chev	-11.8746
▁bell	-11.875
78	-11.875
ents	-11.8751
oria	-11.8754
ware	-11.8757
itude	-11.8758
▁Non	-11.8768
▁Tru	-11.8774
front	-11.8774
8.4	-11.8776
ROD	-11.8783
▁demon	-11.8785
rise	-11.8791
▁Auto	-11.8792
▁clinic	-11.8793
pat	-11.8794
▁VA	-11.8794
▁Ron	-11.8799
▁Dodge	-11.8799
▁Edd	-11.8805
▁disar	-11.8806
igna	-11.8806
▁televis	-11.8809
fou	-11.881
rome	-11.881
▁magn	-11.8811
▁hazard	-11.8813
federation	-11.8814
▁trap	-11.8814
COUNT	-11.8814
megabyte	-11.8814
sulfur	-11.8814
▁Advisor	-11.8814
▁Agricol	-11.8814
▁Clinton	-11.8814
▁Dresdner	-11.8814
▁Gutfreund	-11.8814
▁Hiroshi	-11.8814
▁Instrument	-11.8814
▁Wertheim	-11.8814
▁adversar	-11.8814
▁artificial	-11.8814
▁dubious	-11.8814
▁flavor	-11.8814
▁jealous	-11.8814
▁jumbo	-11.8814
▁neutron	-11.8814
▁pawn	-11.8814
▁resilienc	-11.8814
▁spectacular	-11.8814
▁tabloid	-11.8814
▁upheaval	-11.8814
▁widow	-11.8814
▁assault	-11.8814
▁ethnic	-11.8814
▁orchestra	-11.8814
▁outweigh	-11.8814
▁supplement	-11.8814
▁IPO	-11.8814
▁drastic	-11.8814
▁endorsement	-11.8814
▁salmon	-11.8814
▁Shield	-11.8814
iewi	-11.8814
▁Vanguard	-11.8814
▁horrible	-11.8814
▁Rapid	-11.8814
▁jetliner	-11.8814
▁Metromedia	-11.8814
▁Insurer	-11.8814
▁modification	-11.8814
▁multinational	-11.8814
bvious	-11.8814
▁unfavorabl	-11.8814
▁Beebe	-11.8814
▁Cypr	-11.8814
▁mirror	-11.8814
▁multimillion	-11.8814
▁trough	-11.8814
▁lecture	-11.8814
▁loud	-11.8814
▁nursing	-11.8814
▁Harbor	-11.8814
▁embryo	-11.8814
▁Hammack	-11.8814
▁denounc	-11.8814
▁Jamaica	-11.8814
▁Sherwin	-11.8814
▁glor	-11.8814
▁prescribe	-11.8815
▁blunt	-11.8815
▁blanket	-11.8815
▁airplane	-11.8815
▁evacuat	-11.8815
▁stagger	-11.8815
▁Fleet	-11.8815
▁HOME	-11.8815
▁etc	-11.8815
▁Exper	-11.8815
▁Large	-11.8815
▁newcomer	-11.8815
arriage	-11.8815
▁turf	-11.8815
▁salvage	-11.8815
-1990	-11.8815
▁profound	-11.8815
ometer	-11.8815
▁distinctive	-11.8815
▁fantas	-11.8816
▁unique	-11.8816
▁pegg	-11.8816
▁thrust	-11.8816
▁Salina	-11.8816
ave	-11.8816
▁funnel	-11.8816
▁Schaef	-11.8816
▁mural	-11.8817
▁Krasno	-11.8817
▁Staff	-11.8817
▁Light	-11.8817
▁prudent	-11.8817
▁prepayment	-11.8817
▁conceal	-11.8817
eur	-11.8817
▁chao	-11.8817
▁Scottish	-11.8817
▁advertisement	-11.8817
▁conform	-11.8817
▁translation	-11.8819
▁unifie	-11.8819
▁Montedis	-11.8819
▁diplomatic	-11.8819
▁civilian	-11.8819
▁vital	-11.8819
useum	-11.882
▁recreational	-11.882
▁thwart	-11.8821
▁thorough	-11.8821
▁legend	-11.8821
▁boring	-11.8821
▁fitness	-11.8822
▁ESP	-11.8822
▁ASS	-11.8823
▁Shaw	-11.8823
▁dash	-11.8824
etus	-11.8824
▁Highland	-11.8825
▁artery	-11.8826
▁2,500	-11.8826
▁MIP	-11.8826
▁sketch	-11.8829
▁outrage	-11.8829
▁Crown	-11.8832
log	-11.8832
▁1.19	-11.8833
▁Mera	-11.8836
▁Former	-11.8836
▁Flu	-11.8837
ohl	-11.8837
▁hopeful	-11.8838
▁Nine	-11.8841
▁neat	-11.8844
▁generat	-11.8845
▁snag	-11.8846
▁notification	-11.8847
▁1.23	-11.8848
▁Parent	-11.8851
▁Erb	-11.8851
▁Gross	-11.8851
▁endure	-11.8852
▁Figure	-11.8852
ejian	-11.8853
endar	-11.8855
▁sinking	-11.8857
▁loosen	-11.8858
▁pun	-11.8859
▁collector	-11.886
▁turbine	-11.886
▁tapp	-11.8861
▁bicycle	-11.8861
pel	-11.8861
word	-11.8862
tibo	-11.8862
▁Hunter	-11.8864
▁penn	-11.8865
▁confesse	-11.8868
▁understate	-11.8869
wick	-11.887
▁Pace	-11.8876
DD	-11.8876
▁Odd	-11.8877
idge	-11.8878
▁seventh	-11.8883
kai	-11.8883
▁ACC	-11.8883
▁excite	-11.8885
retta	-11.8887
▁Libert	-11.8889
▁inject	-11.8889
▁muscle	-11.8894
▁bowling	-11.8894
ancy	-11.8896
▁7.93	-11.8897
uick	-11.8901
▁9.2	-11.8902
▁inspect	-11.8904
▁Aria	-11.8904
acilit	-11.8906
▁Mead	-11.8914
▁fed	-11.8918
▁Case	-11.8919
▁Roll	-11.8921
wave	-11.8931
▁Brun	-11.8935
▁convenience	-11.8939
▁Wild	-11.8942
▁manipulation	-11.8944
▁arena	-11.8944
6.2	-11.8945
▁launder	-11.8945
▁Guy	-11.8947
leak	-11.8947
oro	-11.8952
BS	-11.8959
▁Deu	-11.8962
▁Advertiser	-11.8968
▁lighter	-11.8973
▁Wald	-11.8977
rode	-11.898
▁13.5	-11.8982
▁violent	-11.8982
▁memori	-11.8982
▁spurt	-11.8983
▁arbitrager	-11.8984
▁sl	-11.8992
dura	-11.8996
▁evaluat	-11.8999
▁pig	-11.9001
▁skier	-11.9009
▁experimental	-11.9013
▁insert	-11.9016
▁funn	-11.9021
▁Lars	-11.9028
bodie	-11.903
▁spre	-11.9032
kon	-11.9032
hit	-11.9033
▁grade	-11.9039
▁nose	-11.9041
▁10.3	-11.9046
wit	-11.9057
wo	-11.9064
▁embarrassing	-11.9068
▁payout	-11.9076
▁Ram	-11.9082
vin	-11.9083
▁Ami	-11.909
bear	-11.9092
plan	-11.9092
.76	-11.9096
itman	-11.9096
▁Scienti	-11.9101
rays	-11.9102
baum	-11.9106
ria	-11.9107
▁gallon	-11.9113
leans	-11.9115
scru	-11.9116
▁Dale	-11.9116
var	-11.9129
375	-11.9138
▁Schwar	-11.914
▁update	-11.9144
cock	-11.9144
▁slim	-11.9147
▁industrialize	-11.9152
▁Mak	-11.9163
▁Lauren	-11.9165
▁Moo	-11.9169
drum	-11.9169
ete	-11.9169
▁shopper	-11.9172
fi	-11.9172
▁Lyon	-11.9176
oundation	-11.9176
election	-11.9176
capital	-11.9179
mfor	-11.9182
oise	-11.9184
owe	-11.9185
▁stroke	-11.9193
▁rack	-11.9193
▁classifie	-11.9193
welcome	-11.9194
▁fla	-11.9195
consolidate	-11.9199
look	-11.9199
equivalent	-11.9202
ABC	-11.9205
▁EM	-11.9205
1970	-11.9206
popular	-11.9206
normal	-11.9208
sufficient	-11.9208
resistan	-11.9209
benefit	-11.921
volume	-11.921
takeover	-11.921
health	-11.9211
ku	-11.9212
rating	-11.9213
Bank	-11.9214
billion	-11.9218
again	-11.9223
▁cre	-11.9229
firm	-11.9233
stake	-11.9236
ept	-11.9241
▁Appli	-11.9246
limited	-11.9248
33	-11.9251
▁reader	-11.9254
.27	-11.9259
▁Mother	-11.9261
▁Camp	-11.9262
▁8.32	-11.9268
trick	-11.9269
EO	-11.9272
repaid	-11.9291
referred	-11.9303
lance	-11.9304
▁Petro	-11.9315
eman	-11.9315
▁reap	-11.9331
season	-11.9334
▁spec	-11.9347
mes	-11.9348
elling	-11.9352
hitting	-11.9353
▁je	-11.9366
▁bird	-11.9368
Neal	-11.9368
▁14-	-11.9371
▁middlem	-11.9372
▁minorit	-11.9374
nut	-11.9379
▁folks	-11.9379
mate	-11.9381
▁40-	-11.9386
iron	-11.9389
tool	-11.9391
ut	-11.9393
.43	-11.9401
▁Lord	-11.9405
▁14.6	-11.9412
▁Pit	-11.9414
lion	-11.9425
▁yard	-11.9431
▁blam	-11.9433
▁fac	-11.944
oun	-11.9446
OK	-11.9447
▁Esse	-11.9451
▁470	-11.9457
▁Medica	-11.9465
ress	-11.9466
▁stressed	-11.9472
size	-11.9473
▁Gall	-11.9482
▁268	-11.9495
▁streamline	-11.9498
86	-11.9499
urst	-11.9502
nnie	-11.9505
▁brush	-11.9507
▁1.835	-11.9522
▁sight	-11.9526
tha	-11.9536
▁lo	-11.9538
▁cal	-11.9547
▁licens	-11.9553
▁unemploy	-11.9558
▁52-	-11.9569
ound	-11.9571
▁advanc	-11.9571
▁Rud	-11.9574
▁Ali	-11.9577
▁Bel	-11.9579
pt	-11.9583
anque	-11.9586
isch	-11.9591
mur	-11.9602
▁Kat	-11.9605
storage	-11.9608
▁Beau	-11.9615
▁str	-11.9617
▁deprive	-11.9626
▁Sus	-11.9627
ps	-11.9639
▁mal	-11.964
▁Duk	-11.964
▁bound	-11.9644
▁accompani	-11.9655
date	-11.9656
▁lin	-11.9664
▁ho	-11.9665
▁Bol	-11.9668
▁BR	-11.9671
▁Sor	-11.9674
▁Maxi	-11.9675
▁Les	-11.9682
▁Investigati	-11.9682
rbert	-11.969
▁organiz	-11.97
▁1.57	-11.9702
ental	-11.9702
▁shed	-11.9708
enc	-11.9711
science	-11.9712
▁185	-11.9749
▁purchaser	-11.9757
ssistant	-11.9763
olly	-11.9772
eventh	-11.9788
▁Anne	-11.9789
▁commit	-11.9794
▁bo	-11.9795
007	-11.9802
▁amaz	-11.9806
IT	-11.9809
key	-11.9809
stop	-11.981
▁choos	-11.9811
▁Produc	-11.9813
EASUR	-11.9814
,100	-11.9818
▁24-	-11.9824
ph	-11.9829
ennan	-11.9831
▁Dill	-11.9831
hr	-11.9831
ogel	-11.9834
▁scholars	-11.9843
7.3	-11.9847
arsk	-11.9847
▁energ	-11.9849
cable	-11.9849
▁pla	-11.9855
zk	-11.9857
▁cr	-11.9858
▁Custom	-11.9859
4.7	-11.9861
▁Oma	-11.9862
▁authors	-11.9864
▁Includ	-11.9864
uclear	-11.9869
▁FM	-11.9888
cientific	-11.989
▁149	-11.9893
understanding	-11.9897
rax	-11.9903
▁Franco	-11.9906
▁prosecut	-11.991
▁Tas	-11.9912
oftware	-11.9912
hai	-11.9915
merica	-11.9915
mund	-11.9915
▁donate	-11.9916
▁buri	-11.9918
ampa	-11.9919
denominat	-11.9919
▁blo	-11.992
▁commute	-11.9921
▁presum	-11.9921
▁Torri	-11.9923
▁Consult	-11.9925
▁blank	-11.9925
▁unrest	-11.9925
▁tumult	-11.9925
▁turbulen	-11.9925
▁Abortion	-11.9925
▁Aeronautic	-11.9925
▁Afrikaner	-11.9925
▁Crusader	-11.9925
▁Czechoslovak	-11.9925
▁Egypt	-11.9925
▁Ethiopia	-11.9925
▁Matthew	-11.9925
▁Scorpio	-11.9925
▁Shakespeare	-11.9925
▁UFO	-11.9925
▁Vancouver	-11.9925
▁aggregate	-11.9925
▁autumn	-11.9925
▁divisive	-11.9925
▁divorce	-11.9925
▁facsimile	-11.9925
▁gimmick	-11.9925
▁hypoglycemi	-11.9925
▁inappropriate	-11.9925
▁loophole	-11.9925
▁malignan	-11.9925
▁rebuff	-11.9925
▁refurbish	-11.9925
▁rescind	-11.9925
▁retrofit	-11.9925
▁trespass	-11.9925
▁vivid	-11.9925
▁Merchant	-11.9925
▁RISC	-11.9925
▁Sheraton	-11.9925
▁village	-11.9925
▁disadvantage	-11.9925
▁sovereign	-11.9925
▁Hydro	-11.9925
▁falter	-11.9925
▁Firm	-11.9925
▁plague	-11.9925
▁Bullock	-11.9925
▁Wheat	-11.9925
▁illusion	-11.9925
▁pollut	-11.9925
▁residence	-11.9925
▁tube	-11.9926
▁Bronfman	-11.9926
▁Lazar	-11.9926
▁humor	-11.9926
▁dissent	-11.9926
▁PAC	-11.9926
▁safeguard	-11.9926
▁Jobs	-11.9926
▁redesign	-11.9926
▁pleasure	-11.9926
▁Prof	-11.9926
▁shatter	-11.9926
▁sexual	-11.9926
▁applicant	-11.9926
▁Reuter	-11.9926
▁resent	-11.9926
▁Hutchi	-11.9926
▁Lombard	-11.9926
▁Regulator	-11.9926
▁Analytic	-11.9926
▁external	-11.9926
▁marble	-11.9926
▁timid	-11.9926
▁Agent	-11.9927
▁libel	-11.9927
▁hazardous	-11.9927
47	-11.9927
▁proud	-11.9927
▁blend	-11.9927
▁loath	-11.9927
▁semi	-11.9927
▁piano	-11.9927
▁ceramic	-11.9927
▁discard	-11.9927
▁grabb	-11.9927
▁fake	-11.9927
▁fame	-11.9928
▁delight	-11.9928
▁offshore	-11.9928
▁limb	-11.9928
▁Strong	-11.9928
▁polyp	-11.9929
▁Close	-11.9929
▁Kirk	-11.9929
▁resale	-11.9929
▁cur	-11.9929
▁deviation	-11.993
▁Liberal	-11.993
▁dizz	-11.993
lysis	-11.993
Touche	-11.993
▁Thorn	-11.993
▁prepaid	-11.9931
▁friendship	-11.9931
▁phrase	-11.9931
▁policyholder	-11.9931
▁punch	-11.9931
▁Trott	-11.9931
▁invitation	-11.9931
▁layoff	-11.9932
▁Hubb	-11.9932
▁Local	-11.9932
▁Classic	-11.9932
▁deem	-11.9932
▁disposal	-11.9933
▁hover	-11.9933
▁incumbent	-11.9933
▁wonderful	-11.9933
▁Tel	-11.9934
▁outfit	-11.9934
▁Truck	-11.9934
▁Judicia	-11.9934
▁concentration	-11.9934
▁McNam	-11.9935
▁jeopardize	-11.9935
▁Deput	-11.9935
▁overlook	-11.9935
▁Avon	-11.9935
▁notify	-11.9935
▁freeze	-11.9936
▁valuation	-11.9936
▁Hahn	-11.9936
▁reinstate	-11.9936
▁Providen	-11.9937
▁tilt	-11.9937
▁Palmer	-11.9937
▁laser	-11.9937
▁Employ	-11.9937
▁Sound	-11.9937
▁declaration	-11.9939
▁Solar	-11.9939
▁ironic	-11.9939
▁Highway	-11.994
▁showroom	-11.994
▁Jeffer	-11.9941
▁Sharp	-11.9942
▁trapp	-11.9942
enna	-11.9943
▁rubber	-11.9943
▁leftist	-11.9943
▁selective	-11.9945
nitive	-11.9947
▁Heller	-11.9949
▁magic	-11.9949
▁snow	-11.9951
titude	-11.9953
▁confere	-11.9954
▁Gil	-11.9956
▁summon	-11.9956
▁Margin	-11.9956
▁Rubin	-11.9957
GB	-11.9958
▁Joll	-11.9958
▁Property	-11.9959
▁Competit	-11.996
▁emphasiz	-11.996
onvex	-11.9961
▁gamble	-11.9962
▁Stop	-11.9962
▁Wy	-11.9963
rtiz	-11.9964
▁auditor	-11.9966
▁Sure	-11.9966
▁10.8	-11.9968
▁Declin	-11.9969
▁rear	-11.997
▁jobless	-11.9971
mlin	-11.9973
▁doom	-11.9974
ATT	-11.9976
▁incinerat	-11.9977
▁chicken	-11.9977
▁diagnostic	-11.9977
▁Design	-11.9977
ntermediate	-11.9978
▁allowance	-11.9978
▁Deser	-11.9978
▁convene	-11.9979
lene	-11.998
▁inspection	-11.9984
gee	-11.9984
▁attraction	-11.9984
aff	-11.9985
▁Pur	-11.9986
▁distributors	-11.9989
ledo	-11.9989
▁automated	-11.9997
▁Francois	-11.9997
▁froze	-11.9998
▁Wind	-12.0002
▁35,000	-12.0003
▁Ng	-12.0004
poli	-12.0004
▁stepp	-12.0006
▁Utsu	-12.0006
▁undertaking	-12.0008
▁applaud	-12.0008
▁injury	-12.0008
▁Josh	-12.0009
ag	-12.001
▁seniority	-12.0017
▁peer	-12.0019
DA	-12.002
andem	-12.0021
▁caller	-12.0021
▁Schul	-12.0023
RE	-12.003
950	-12.0032
▁heavier	-12.0033
feld	-12.0036
erg	-12.0041
vil	-12.0043
EW	-12.0047
▁tune	-12.0047
nwo	-12.0051
▁prisoner	-12.0053
▁Omni	-12.006
▁arouse	-12.0065
haus	-12.0067
▁Domini	-12.0069
SP	-12.0072
▁Ameri	-12.0073
▁promoter	-12.0075
▁1967	-12.0076
mph	-12.0077
▁deploy	-12.0083
IG	-12.0083
az	-12.0085
olive	-12.0086
hill	-12.0086
4.6	-12.0093
82	-12.01
▁enabl	-12.0103
acle	-12.0104
▁340	-12.0104
▁tear	-12.0105
idley	-12.0107
▁Tire	-12.0117
lman	-12.0121
▁Try	-12.0121
8.5	-12.0125
▁Vil	-12.0126
▁Nort	-12.0126
aft	-12.0128
▁104	-12.0136
▁allocate	-12.0136
▁108	-12.0144
▁Alar	-12.015
MI	-12.0152
▁Pla	-12.0154
▁tires	-12.0157
shi	-12.0162
▁intensive	-12.0163
▁characteristic	-12.0163
▁figur	-12.0163
▁dioxi	-12.0173
▁practic	-12.0177
▁circulati	-12.0179
▁cup	-12.0182
ario	-12.0186
▁Canto	-12.0186
bus	-12.0192
▁locat	-12.0195
tron	-12.0205
55	-12.0206
▁Luc	-12.0207
▁Reg	-12.021
▁Ve	-12.021
▁Bran	-12.0212
▁sp	-12.0215
▁killer	-12.0215
terior	-12.0215
▁electro	-12.0217
azio	-12.0219
▁Tu	-12.0221
▁arise	-12.0221
icop	-12.0228
km	-12.0229
▁postur	-12.0233
▁8.33	-12.0234
▁cris	-12.0235
kow	-12.0236
▁Goods	-12.0238
▁Emba	-12.025
ders	-12.0253
▁Sol	-12.0267
eater	-12.0272
▁seiz	-12.028
zer	-12.0286
▁Fam	-12.0287
▁60-	-12.0289
▁Cape	-12.0295
▁Armo	-12.0297
▁beep	-12.0301
▁puzzle	-12.0302
▁Ov	-12.0311
offs	-12.0315
▁See	-12.0319
▁rod	-12.0319
▁fish	-12.0323
rash	-12.0327
dication	-12.0335
ven	-12.0336
tical	-12.0338
▁Had	-12.0345
▁shorter	-12.035
▁shirt	-12.0352
▁Eddi	-12.0354
rigg	-12.0355
▁emergenc	-12.036
▁educat	-12.0371
▁Kurt	-12.0371
9.3	-12.0373
zzo	-12.0373
▁Ror	-12.0375
▁Gr	-12.0376
author	-12.0383
pa	-12.0389
▁manipulate	-12.04
monopol	-12.0403
▁Robin	-12.0409
▁eras	-12.0414
found	-12.0417
empt	-12.0422
digit	-12.0423
deductible	-12.0424
lock	-12.0427
bow	-12.0427
▁Colli	-12.0427
9.2	-12.0431
▁Grub	-12.0432
spect	-12.0435
uffett	-12.0435
mus	-12.0444
condition	-12.0448
democrac	-12.045
identifie	-12.0451
speak	-12.0451
▁compatib	-12.0451
complete	-12.0454
Scott	-12.0456
warrant	-12.0456
▁behave	-12.0457
▁shoe	-12.0457
safe	-12.0458
▁meal	-12.0459
school	-12.0459
research	-12.046
fourth	-12.046
second	-12.0461
child	-12.0462
anticipate	-12.0463
nell	-12.0464
▁Alt	-12.0464
metal	-12.0467
1980	-12.0467
Bri	-12.0477
cade	-12.0481
row	-12.049
lly	-12.049
9.9	-12.0492
white	-12.0494
living	-12.0498
▁possess	-12.0499
▁ultra	-12.051
Net	-12.0512
▁acquirer	-12.0513
▁rub	-12.0514
▁solv	-12.0523
5.5	-12.0528
▁defer	-12.0529
▁Supervis	-12.0533
000	-12.054
▁Hell	-12.0547
▁mouth	-12.0548
▁bust	-12.0549
▁controller	-12.0556
▁hell	-12.0559
dell	-12.0564
average	-12.0571
▁Mis	-12.0573
DB	-12.058
sense	-12.0587
▁averag	-12.0588
eparation	-12.059
pact	-12.0596
▁perv	-12.0601
inter	-12.0603
dget	-12.0608
▁Thr	-12.0612
arson	-12.0623
89	-12.0627
▁revolutionar	-12.0627
core	-12.0648
gues	-12.0651
▁tails	-12.0652
▁Again	-12.0652
▁erod	-12.0656
▁6\/	-12.0656
▁Pr	-12.0656
▁upgrad	-12.0657
Arc	-12.0659
▁136	-12.0666
2.9	-12.0673
▁Carm	-12.0674
▁bow	-12.0676
ideo	-12.0692
▁Gat	-12.0704
fit	-12.0711
▁Greene	-12.0713
▁whoop	-12.0717
comb	-12.0719
▁Magn	-12.0722
▁importer	-12.0729
▁Nazi	-12.073
RES	-12.0732
IVE	-12.0733
▁terrorist	-12.0737
trategic	-12.0741
art	-12.0742
immer	-12.0751
▁crumbl	-12.0751
▁Laure	-12.0759
▁McKinn	-12.0763
▁imaginati	-12.078
▁cop	-12.0783
▁Kur	-12.0793
▁scat	-12.0797
5.8	-12.0799
▁Jane	-12.0803
▁phon	-12.0816
▁Seat	-12.0822
▁Eg	-12.0823
▁Leon	-12.0827
27	-12.0829
runn	-12.0832
▁revers	-12.0834
▁analyz	-12.0836
▁Gro	-12.0844
NW	-12.0848
▁Pop	-12.0861
▁Bick	-12.0865
itch	-12.0866
▁Bare	-12.0873
96	-12.0876
,300	-12.0878
▁22.5	-12.0884
▁dive	-12.0892
▁nurse	-12.0896
▁du	-12.0896
▁stimulate	-12.0911
▁Ly	-12.0917
▁Neil	-12.0929
▁Pac	-12.0934
▁parliament	-12.0942
9.5	-12.0947
▁Milli	-12.0948
lone	-12.0962
▁18.5	-12.0966
▁rage	-12.0966
funct	-12.097
▁Strateg	-12.097
▁1\/2-	-12.0972
ican	-12.0973
▁responsi	-12.0979
▁Marri	-12.0994
▁Cel	-12.1001
▁bump	-12.1004
▁mailing	-12.101
chel	-12.1019
mination	-12.1023
▁undercut	-12.1023
gher	-12.1025
ues	-12.1032
▁casual	-12.1037
▁32-	-12.1037
Backe	-12.1043
ged	-12.1044
station	-12.1047
▁accrue	-12.1057
uring	-12.1058
anti	-12.1059
itiative	-12.106
▁bacteri	-12.1061
▁qui	-12.1066
DNA	-12.1076
fri	-12.1078
▁Joan	-12.1085
▁stereo	-12.109
▁origin	-12.1095
▁companion	-12.1102
▁folk	-12.1104
▁logic	-12.1112
▁Vot	-12.1113
▁cycl	-12.1117
▁deter	-12.1118
▁Maria	-12.1118
▁patrol	-12.1118
▁124	-12.1122
▁withstand	-12.1124
▁liquidate	-12.1125
lte	-12.1127
▁Parks	-12.1128
▁Mort	-12.1128
▁Monte	-12.1129
▁bra	-12.1132
▁kidnapp	-12.1133
iller	-12.1135
▁SA	-12.1135
ubcommittee	-12.1136
▁Haa	-12.114
ample	-12.1141
.29	-12.1142
minded	-12.1142
▁flip	-12.1143
▁confer	-12.1146
▁jam	-12.1146
▁Have	-12.1147
iano	-12.1148
hara	-12.1148
▁resell	-12.1152
▁slack	-12.1155
▁Junk	-12.1157
▁Kath	-12.1161
▁stir	-12.1162
▁interrupt	-12.1169
▁approache	-12.117
▁earlie	-12.1171
▁feat	-12.1171
▁Ern	-12.1173
▁distract	-12.1173
▁faith	-12.1174
▁Olympi	-12.1174
▁academ	-12.1174
mobile	-12.1175
▁scan	-12.1175
▁hurr	-12.1175
▁buzz	-12.1175
▁Additional	-12.1175
▁Double	-12.1175
▁burglar	-12.1175
caffeine	-12.1175
▁190.58	-12.1175
▁Certain	-12.1175
▁Ehrlich	-12.1175
▁Helmut	-12.1175
▁Norwegian	-12.1175
▁Symbol	-12.1175
▁Tribune	-12.1175
▁Ultimate	-12.1175
▁contraceptive	-12.1175
▁delicate	-12.1175
▁elegant	-12.1175
▁exaggerate	-12.1175
▁incredibl	-12.1175
▁indefinite	-12.1175
▁inherent	-12.1175
▁metaphor	-12.1175
▁nominee	-12.1175
▁ordinance	-12.1175
▁premature	-12.1175
▁resurrect	-12.1175
▁slope	-12.1175
▁statutor	-12.1175
▁subpoena	-12.1175
▁unlawful	-12.1175
▁Knuds	-12.1175
▁arsenal	-12.1175
▁skyrocket	-12.1175
▁Concord	-12.1175
▁gossip	-12.1175
Slau	-12.1175
▁ACCOUNT	-12.1175
▁Tariff	-12.1175
▁swallow	-12.1175
▁Argentin	-12.1175
▁lubricant	-12.1175
▁reorganize	-12.1175
▁languish	-12.1175
▁spiral	-12.1175
▁Yankee	-12.1175
▁Summer	-12.1176
▁blind	-12.1176
▁feedlot	-12.1176
▁imprison	-12.1176
▁minimill	-12.1176
▁spook	-12.1176
▁violin	-12.1176
▁snack	-12.1176
▁yellow	-12.1176
▁embargo	-12.1176
▁sociologist	-12.1176
▁traged	-12.1176
▁videocassette	-12.1176
leaf	-12.1176
▁shelve	-12.1176
▁vault	-12.1176
▁clever	-12.1176
cumber	-12.1176
▁Left	-12.1176
▁notorious	-12.1176
oretical	-12.1176
▁Marxist	-12.1176
▁uneas	-12.1176
▁chef	-12.1176
▁refrigerator	-12.1176
▁Twenty	-12.1176
▁Guide	-12.1176
▁Keep	-12.1176
▁surgical	-12.1176
▁telemarket	-12.1176
▁flock	-12.1176
▁Consultant	-12.1176
▁Command	-12.1176
▁administer	-12.1176
clusion	-12.1176
▁marine	-12.1176
▁Medicine	-12.1176
▁Wool	-12.1176
AMERICA	-12.1176
▁auster	-12.1176
▁sequester	-12.1176
▁reassess	-12.1176
▁squad	-12.1176
▁Otto	-12.1176
▁convey	-12.1176
▁parcel	-12.1176
▁Warburg	-12.1177
▁assort	-12.1177
▁vicious	-12.1177
▁Student	-12.1177
▁Waste	-12.1177
▁stack	-12.1177
▁Actual	-12.1177
▁mask	-12.1177
▁headache	-12.1177
▁Ground	-12.1177
▁Travi	-12.1177
▁thumb	-12.1177
tronic	-12.1177
▁fragment	-12.1178
▁Duff	-12.1178
▁solar	-12.1178
▁handicap	-12.1179
▁hacker	-12.1179
▁confidential	-12.1179
▁meaningful	-12.1179
▁Rafale	-12.1179
▁purse	-12.1179
▁Ernest	-12.1179
▁satir	-12.118
▁whack	-12.118
▁Jefferson	-12.118
.98	-12.118
▁greet	-12.118
▁campus	-12.118
▁keen	-12.1181
▁peaceful	-12.1181
dairy	-12.1181
▁Mail	-12.1181
▁Device	-12.1181
▁reclaim	-12.1181
ovia	-12.1181
▁dumb	-12.1181
▁pullback	-12.1182
▁transmission	-12.1182
▁Factor	-12.1182
▁tackle	-12.1182
▁fabrication	-12.1182
▁height	-12.1183
▁batch	-12.1183
▁damn	-12.1183
emise	-12.1185
▁Southeast	-12.1185
▁Siem	-12.1186
▁disabled	-12.1186
▁powerhouse	-12.1186
▁wedge	-12.1186
▁1,800	-12.1187
▁320	-12.1187
▁Bull	-12.1187
▁variable	-12.1187
▁Castro	-12.1187
▁infection	-12.1188
▁toilet	-12.1188
▁unfold	-12.1188
▁Jenni	-12.1189
▁Perri	-12.1189
▁abate	-12.1189
▁contemporar	-12.1189
▁backfire	-12.1189
ieve	-12.119
▁optimis	-12.119
▁mold	-12.119
▁euph	-12.1191
▁buffet	-12.1191
▁Lynn	-12.1191
omestic	-12.1191
▁glut	-12.1192
urrency	-12.1192
▁enhancement	-12.1192
▁transmitt	-12.1192
▁soap	-12.1193
▁UBS	-12.1194
▁distan	-12.1195
▁frenz	-12.1196
▁Comment	-12.1197
raz	-12.1203
▁titan	-12.1203
▁260	-12.1204
▁Seab	-12.1206
▁Mem	-12.1207
▁Child	-12.1207
▁Broder	-12.1209
▁whiske	-12.1209
▁modifie	-12.1212
▁Jeweler	-12.1214
wagon	-12.1214
▁Elli	-12.1214
▁trafficker	-12.1214
▁ambition	-12.1214
TON	-12.1214
▁blessing	-12.1214
▁Tender	-12.1216
▁buckle	-12.1216
▁2\/3	-12.1217
▁alcohol	-12.1218
▁bind	-12.1219
▁Wend	-12.1219
wall	-12.122
▁boxe	-12.1222
▁Indiana	-12.1224
▁Underwrit	-12.1225
pike	-12.1227
▁Kag	-12.1228
▁sacrifice	-12.1229
▁162	-12.1229
vir	-12.1229
gain	-12.123
INS	-12.1231
▁plug	-12.1232
▁mistaken	-12.1233
▁towel	-12.1234
▁lavish	-12.1234
▁dawn	-12.1235
▁portrait	-12.1235
▁Joint	-12.1235
▁dire	-12.1235
▁McGraw	-12.1235
▁SH	-12.1235
6.5	-12.1236
▁Inno	-12.124
▁logical	-12.1241
▁contaminat	-12.1246
ugal	-12.1247
▁325	-12.1247
guine	-12.1248
aged	-12.1255
▁Bowl	-12.1255
▁Include	-12.1259
▁overstate	-12.126
▁lineup	-12.1261
keep	-12.1264
Kline	-12.1264
▁divergen	-12.1265
adja	-12.1265
leaguer	-12.1266
▁Publisher	-12.1267
▁loom	-12.1268
▁Burr	-12.1268
▁Legen	-12.1274
▁wad	-12.1279
▁Shim	-12.128
▁decepti	-12.1283
▁Mag	-12.1288
▁layer	-12.1289
▁18.6	-12.1289
▁pollen	-12.1289
▁passion	-12.1292
asive	-12.1295
9.6	-12.1297
▁Plu	-12.1298
aji	-12.1299
▁NO	-12.1301
▁Apo	-12.1302
▁biker	-12.1303
▁Thanks	-12.1304
▁Jamie	-12.1308
▁retin	-12.131
▁Mos	-12.1311
▁accessor	-12.1314
owitz	-12.1317
▁Burk	-12.1317
ify	-12.1321
▁reconstruct	-12.1322
▁Toy	-12.1327
▁Aqui	-12.1332
▁entrench	-12.1338
▁patch	-12.1338
▁Mate	-12.1339
▁141.5	-12.1342
rou	-12.1343
9.7	-12.1345
▁Sara	-12.1349
▁busies	-12.1351
▁Cru	-12.1357
pparent	-12.1367
▁unwa	-12.1369
luminum	-12.1371
▁shy	-12.1376
▁SK	-12.1377
▁Av	-12.1378
ALL	-12.1385
ben	-12.1387
▁Schl	-12.1391
09	-12.1394
j	-12.1401
▁Hut	-12.1403
▁collaps	-12.1405
▁Kay	-12.1408
▁lev	-12.1409
▁Wors	-12.1411
▁equipp	-12.1415
▁Norm	-12.1416
▁clip	-12.1431
▁Ei	-12.1431
▁Saul	-12.1434
▁Patric	-12.1438
orbit	-12.1439
▁trans	-12.1443
▁capita	-12.1445
▁illness	-12.1445
▁gentle	-12.1454
-6	-12.1454
▁liberalize	-12.1456
▁Jacob	-12.1459
hin	-12.1464
▁Rif	-12.1467
dus	-12.1471
▁Ferr	-12.1472
▁rout	-12.1473
▁Mari	-12.1479
hol	-12.1483
▁Kev	-12.1489
ruz	-12.149
▁comprise	-12.1491
24	-12.1494
▁Hay	-12.1499
LJ	-12.1502
-18	-12.1507
ird	-12.151
anca	-12.1513
▁gang	-12.1514
activate	-12.1521
▁evade	-12.1523
rgus	-12.1526
▁glamor	-12.1527
▁flam	-12.153
▁Mario	-12.1531
stra	-12.1536
MP	-12.1538
bris	-12.1538
▁1.58	-12.1539
chim	-12.1542
Gregor	-12.1543
▁12.3	-12.1548
▁converter	-12.1552
▁contraction	-12.1557
▁Victoria	-12.1563
▁Accept	-12.1563
▁ob	-12.1566
usage	-12.1567
▁275	-12.157
▁Mel	-12.1571
▁Pret	-12.1571
▁Suppl	-12.1575
▁bla	-12.1576
hum	-12.1579
▁parad	-12.1586
▁minimize	-12.1588
▁26-	-12.1592
-13	-12.1595
intel	-12.1596
▁Weeke	-12.1602
▁Vern	-12.1614
▁pizza	-12.1619
▁13.7	-12.1621
▁Galle	-12.1627
erie	-12.1635
win	-12.1636
▁defender	-12.1639
▁DA	-12.1654
agu	-12.1658
▁Emer	-12.1667
ois	-12.1667
anto	-12.1676
▁Investigat	-12.1681
▁Petrole	-12.1683
▁Sit	-12.1686
▁heir	-12.1689
uci	-12.1689
▁occupie	-12.1689
▁Len	-12.1691
1.7	-12.1694
eb	-12.1705
ative	-12.1708
nvertible	-12.1709
▁button	-12.1713
▁swor	-12.1716
▁diet	-12.1718
arian	-12.1719
▁motivat	-12.1722
ram	-12.1723
▁Adams	-12.173
▁Advance	-12.1735
comp	-12.1742
▁Liz	-12.1742
ior	-12.1742
▁Sis	-12.1744
▁Tan	-12.1746
enburg	-12.1748
▁11.8	-12.1753
▁tens	-12.1754
▁gyrat	-12.1768
▁Chest	-12.1769
▁translat	-12.1772
instay	-12.1791
▁pie	-12.1795
cap	-12.1796
coaster	-12.1804
▁fold	-12.1805
▁Ya	-12.181
▁1989-8	-12.181
eil	-12.1812
▁inflate	-12.1817
▁retrieve	-12.1823
pite	-12.1824
aker	-12.1824
▁Barret	-12.1827
rine	-12.1827
▁ab	-12.1831
MAC	-12.1832
▁UP	-12.1833
pillar	-12.1838
subscribe	-12.1839
Palm	-12.1839
withstand	-12.1845
▁Naz	-12.1845
mouth	-12.1846
bird	-12.185
arch	-12.1854
▁chew	-12.1856
▁11.4	-12.1856
▁Palm	-12.1857
▁amass	-12.1861
proof	-12.1862
▁ent	-12.1867
solicit	-12.1867
injury	-12.1869
weight	-12.1869
▁Pen	-12.1872
democratic	-12.1872
▁subscribe	-12.1874
blast	-12.1874
border	-12.1875
77	-12.1876
uber	-12.1876
glass	-12.1879
register	-12.1879
play	-12.188
constitutional	-12.1881
chew	-12.1881
picture	-12.1882
traffic	-12.1883
▁gate	-12.1883
▁drum	-12.1884
waste	-12.1884
access	-12.1885
morning	-12.1886
arbitrage	-12.1886
reform	-12.1886
material	-12.1887
▁210	-12.1887
margin	-12.1887
treatment	-12.1888
Hill	-12.1888
fight	-12.1888
contract	-12.1888
bigge	-12.1889
▁27.9	-12.1889
financial	-12.1889
record	-12.189
common	-12.1891
▁pillar	-12.1895
high	-12.1896
South	-12.1896
office	-12.1897
wait	-12.1898
▁72-	-12.19
▁celebrat	-12.1907
▁mar	-12.1914
▁dispose	-12.1919
ticket	-12.1919
laying	-12.1921
▁Furu	-12.1931
▁respectab	-12.1934
▁map	-12.1939
visib	-12.1949
▁pigs	-12.1949
iv	-12.1951
Face	-12.1951
IM	-12.1956
ire	-12.1956
turn	-12.1961
cho	-12.1968
NBC	-12.197
mmer	-12.1971
Poul	-12.1979
▁11.7	-12.198
rank	-12.1988
pay	-12.199
▁Cro	-12.199
▁Deer	-12.1998
link	-12.2007
▁dig	-12.202
▁enhanc	-12.2023
▁Tr	-12.2028
▁mint	-12.203
anne	-12.203
aska	-12.204
▁bounc	-12.204
▁Ruben	-12.204
▁cartoon	-12.2044
ines	-12.2045
▁8.03	-12.2048
▁18.7	-12.2049
guy	-12.2051
lier	-12.2052
▁JA	-12.2053
▁yards	-12.206
▁20.5	-12.2063
▁Ph	-12.2064
▁propriet	-12.2064
piro	-12.2066
9.4	-12.2067
▁35-	-12.2085
▁recit	-12.2098
▁bottl	-12.2109
giv	-12.2112
▁stat	-12.2113
ena	-12.2114
allowe	-12.2133
2.8	-12.2133
mah	-12.2134
▁customs	-12.2134
▁premiere	-12.2141
▁Spect	-12.2146
servic	-12.2148
▁Make	-12.215
lagging	-12.2156
vsk	-12.2159
▁Ek	-12.216
dering	-12.2161
kov	-12.2162
▁Teles	-12.2162
▁univers	-12.2164
05	-12.2165
utter	-12.2171
employe	-12.2177
▁Cens	-12.2179
AV	-12.218
▁refuge	-12.2187
▁Card	-12.2189
▁Stal	-12.2194
▁updat	-12.2195
rical	-12.2195
rosion	-12.2198
▁Aer	-12.221
▁Cane	-12.2215
▁Fol	-12.2217
▁Disco	-12.2223
▁Nick	-12.2226
▁Gol	-12.2233
isse	-12.2236
hon	-12.2239
eeth	-12.2246
▁Live	-12.2249
vian	-12.2253
drop	-12.226
arry	-12.2264
▁switche	-12.2265
▁Clai	-12.2272
manag	-12.2281
62	-12.2285
▁16-	-12.2291
dolph	-12.2304
▁downgrad	-12.2313
mergency	-12.2318
49.3	-12.2319
▁allocat	-12.2329
lab	-12.2332
▁280	-12.2333
late	-12.2337
lowe	-12.2338
ora	-12.2338
ump	-12.2341
ragg	-12.2342
oon	-12.2345
.94	-12.2354
▁Glas	-12.2366
▁Sp	-12.2377
arms	-12.2378
▁tumbl	-12.2381
▁Down	-12.2382
▁Ris	-12.2388
ickel	-12.241
▁remed	-12.2413
▁linger	-12.2413
izer	-12.2414
▁Too	-12.2425
▁143	-12.2427
▁Ward	-12.2431
▁galvaniz	-12.2432
ath	-12.2434
▁Vari	-12.2442
Mid	-12.2443
start	-12.2445
▁Edg	-12.2446
▁sigh	-12.2458
▁pol	-12.2463
▁Cho	-12.2463
▁endanger	-12.2464
▁stamp	-12.2465
raiser	-12.2471
▁thriv	-12.2471
▁oblig	-12.2473
71	-12.2474
▁747	-12.2479
▁horn	-12.2484
▁Wak	-12.2485
▁Institut	-12.2488
ggie	-12.249
▁educate	-12.2492
▁significan	-12.2493
▁Accord	-12.2494
▁16.2	-12.2503
mat	-12.2511
illa	-12.2513
▁instruct	-12.2513
▁Weil	-12.2517
▁Carri	-12.2518
▁spi	-12.252
competent	-12.2521
bor	-12.2534
▁1.27	-12.2535
▁bran	-12.2535
kind	-12.2537
urie	-12.254
rrow	-12.2541
ggy	-12.2543
▁13.2	-12.255
▁teache	-12.2552
▁periodic	-12.2553
▁370	-12.2554
▁Ten	-12.2554
▁norm	-12.2556
ugh	-12.2556
harp	-12.2556
.41	-12.2557
▁Step	-12.2569
▁eva	-12.2571
aki	-12.2572
nker	-12.2572
▁compos	-12.2574
ridde	-12.2575
▁Berli	-12.2577
▁gri	-12.2577
▁booking	-12.2582
ifi	-12.2583
▁advertise	-12.2584
▁ensur	-12.2586
▁chronic	-12.2592
eflect	-12.2594
▁Russia	-12.2594
▁snap	-12.2595
▁enthusiast	-12.2597
▁cruise	-12.2597
▁distinct	-12.2597
▁pragmati	-12.2597
uzzi	-12.2597
▁bal	-12.2598
▁reimburse	-12.2599
▁addict	-12.2599
▁abort	-12.2601
▁215	-12.2601
nvenience	-12.2601
▁bankrupt	-12.2602
rdlo	-12.2602
38.7	-12.2602
▁reign	-12.2602
rosecutor	-12.2602
doch	-12.2603
▁jack	-12.2604
▁negligen	-12.2604
▁arbitrar	-12.2604
practitioner	-12.2604
▁Alternative	-12.2604
▁Challenge	-12.2604
▁Governor	-12.2604
▁Idaho	-12.2604
▁Immune	-12.2604
▁Keizai	-12.2604
▁Movie	-12.2604
▁Retail	-12.2604
▁Revolution	-12.2604
▁Scandinavia	-12.2604
▁Scenario	-12.2604
▁Support	-12.2604
▁Survey	-12.2604
▁Thousand	-12.2604
▁Trouble	-12.2604
▁abundant	-12.2604
▁adhesive	-12.2604
▁appall	-12.2604
▁custod	-12.2604
▁decisive	-12.2604
▁detergent	-12.2604
▁elephant	-12.2604
▁fossil	-12.2604
▁jazz	-12.2604
▁memorandum	-12.2604
▁nostalgi	-12.2604
▁peasant	-12.2604
▁precaution	-12.2604
▁preclude	-12.2604
▁pronounce	-12.2604
▁relinquish	-12.2604
▁scratch	-12.2604
▁streak	-12.2604
▁unleash	-12.2604
▁Dassault	-12.2604
▁arrogan	-12.2604
▁contradict	-12.2604
▁explicit	-12.2604
▁herbicide	-12.2604
▁lumber	-12.2604
▁mimic	-12.2604
▁nightmare	-12.2604
▁recipe	-12.2604
▁remote	-12.2604
▁signature	-12.2604
▁staunch	-12.2604
▁steriliz	-12.2604
▁stupid	-12.2604
dimension	-12.2604
▁Enviro	-12.2604
▁alleviat	-12.2604
▁recoup	-12.2604
▁superconductor	-12.2604
▁tunnel	-12.2604
▁Recruit	-12.2604
▁Andreas	-12.2604
▁envy	-12.2604
▁racehorse	-12.2604
▁terrif	-12.2604
▁implicit	-12.2604
▁reoffer	-12.2604
recipi	-12.2604
▁Initial	-12.2604
▁Litv	-12.2604
▁Pepsi	-12.2604
▁ecological	-12.2604
▁renovat	-12.2604
▁grasp	-12.2604
▁homosexual	-12.2604
▁Automobile	-12.2604
▁Salvador	-12.2604
▁riot	-12.2604
fluoro	-12.2604
▁disguise	-12.2604
▁dispersant	-12.2604
▁sniff	-12.2604
▁courier	-12.2604
▁grievance	-12.2604
▁spreadsheet	-12.2604
▁potent	-12.2604
▁Freight	-12.2604
▁Kinder	-12.2604
IFI	-12.2604
▁mafia	-12.2604
▁tongue	-12.2604
▁reception	-12.2604
▁Peasant	-12.2604
▁nagging	-12.2604
▁probabilit	-12.2604
▁demographic	-12.2604
▁enjoin	-12.2604
▁confine	-12.2604
▁ponder	-12.2604
▁lump	-12.2604
▁blond	-12.2604
▁unrealistic	-12.2604
▁Talk	-12.2605
▁halve	-12.2605
▁Rhone	-12.2605
▁acquitt	-12.2605
▁thoroughbred	-12.2605
▁verge	-12.2605
▁DeVo	-12.2605
▁undul	-12.2605
▁deliberation	-12.2605
▁autonom	-12.2605
awthorn	-12.2605
▁Blind	-12.2605
▁invade	-12.2605
▁budd	-12.2605
▁Bernstein	-12.2605
▁landfill	-12.2605
▁polish	-12.2605
▁frank	-12.2605
▁Wheel	-12.2605
▁fax	-12.2605
▁Armenian	-12.2605
▁championship	-12.2605
▁deflator	-12.2606
▁pinpoint	-12.2606
▁savv	-12.2606
▁recount	-12.2606
▁reliabl	-12.2606
▁hemorrhag	-12.2606
▁secretari	-12.2606
▁Volk	-12.2606
▁gloss	-12.2606
has	-12.2606
▁exile	-12.2606
▁garage	-12.2606
▁gem	-12.2606
▁glare	-12.2606
phis	-12.2606
▁uninsur	-12.2606
▁62.8	-12.2606
▁hydro	-12.2606
▁pico	-12.2606
▁evil	-12.2607
sterile	-12.2607
▁foil	-12.2607
▁conscious	-12.2607
▁motorist	-12.2607
vious	-12.2607
▁conservation	-12.2608
▁Sumit	-12.2608
▁drunk	-12.2608
▁fray	-12.2608
▁Specific	-12.2608
▁Claud	-12.2608
uarter	-12.2608
▁palm	-12.2609
▁memorab	-12.2609
▁foul	-12.2609
▁Assum	-12.2609
▁hostage	-12.2609
▁elevator	-12.2609
▁distinction	-12.261
▁Barber	-12.261
▁Dayton	-12.261
▁arrival	-12.261
▁Syrian	-12.261
zig	-12.2611
▁populat	-12.2611
▁tractor	-12.2611
▁overreact	-12.2611
▁coca	-12.2611
▁Complet	-12.2613
▁McCart	-12.2613
▁stimulator	-12.2613
▁raid	-12.2613
▁narrat	-12.2614
▁handsome	-12.2614
▁seism	-12.2614
▁accomplishment	-12.2614
kota	-12.2615
▁Libyan	-12.2615
▁Beef	-12.2615
▁Prav	-12.2616
▁Inflation	-12.2616
▁courthouse	-12.2616
▁Messia	-12.2617
▁filter	-12.2617
Tech	-12.2617
▁mom	-12.2617
▁Lung	-12.2617
▁diversion	-12.2618
upil	-12.2618
laywright	-12.2618
mipu	-12.2618
▁differential	-12.2619
rborn	-12.2619
▁Regal	-12.2619
▁propell	-12.2619
▁Bock	-12.262
cule	-12.262
▁flatten	-12.262
▁21.3	-12.2621
▁22.8	-12.2622
▁melt	-12.2622
▁ferry	-12.2622
▁Arl	-12.2625
▁Beech	-12.2626
urement	-12.2626
▁Yone	-12.2626
istu	-12.2627
▁Environmentalis	-12.2627
olini	-12.2628
▁prohibition	-12.2628
▁fret	-12.2628
▁yank	-12.263
▁Bund	-12.2632
▁Gain	-12.2632
▁clo	-12.2632
▁swimm	-12.2634
naire	-12.2634
▁39.5	-12.2635
▁Developer	-12.2635
adill	-12.2636
▁ABB	-12.2636
▁tainted	-12.2637
▁subway	-12.2637
▁cutback	-12.2637
▁overrun	-12.2637
▁creepi	-12.2637
▁avert	-12.2639
▁Shopp	-12.264
EAR	-12.2641
▁restart	-12.2643
▁Tian	-12.2644
▁survivor	-12.2644
▁Eas	-12.2646
▁1.59	-12.2646
▁stampede	-12.2647
▁innovati	-12.2647
▁Abb	-12.2647
▁trademark	-12.2647
▁input	-12.2647
▁elite	-12.2647
▁224	-12.2648
▁merg	-12.2648
tenth	-12.2651
▁99.1	-12.2652
▁Box	-12.2653
▁playoff	-12.2656
▁1.82	-12.2656
▁contemplate	-12.2658
▁reel	-12.2659
▁229	-12.2661
▁reactor	-12.2663
▁pullout	-12.2664
▁Fear	-12.2666
▁13\/	-12.2667
▁Crest	-12.2669
▁148	-12.267
▁Orr	-12.267
▁outlaw	-12.2671
▁LAW	-12.2673
▁orthodox	-12.2673
▁sporadic	-12.2673
▁surpass	-12.2673
▁yuppie	-12.2673
▁Madrid	-12.2673
▁Ger	-12.2674
▁spray	-12.2674
▁Meyer	-12.2674
▁brutal	-12.2674
▁renewal	-12.2676
▁censor	-12.2676
▁glad	-12.2679
▁Officer	-12.2679
▁bowl	-12.268
▁zone	-12.2683
▁midsize	-12.2688
ara	-12.2698
sea	-12.2702
▁proliferat	-12.2702
▁creator	-12.2704
▁Leo	-12.2705
▁conception	-12.2705
ject	-12.2706
▁constraint	-12.2706
▁anim	-12.2706
ubro	-12.2707
▁chi	-12.271
izar	-12.271
▁DC	-12.2715
▁Haag	-12.2716
▁hunter	-12.2717
▁Compare	-12.2718
▁Voy	-12.272
▁composer	-12.272
yuki	-12.2722
▁UV	-12.2722
▁Dep	-12.2723
GY	-12.2723
▁1.37	-12.2723
▁Pil	-12.2724
▁Give	-12.2727
▁obligat	-12.2732
▁16.4	-12.2733
▁grid	-12.2734
lusive	-12.2735
AKE	-12.2737
▁Milk	-12.2739
▁soda	-12.274
rang	-12.2741
▁7.95	-12.2743
▁moderat	-12.2743
▁conservator	-12.2743
astro	-12.2744
▁citizen	-12.2746
duci	-12.2748
▁Sago	-12.2749
shine	-12.2753
▁dogg	-12.2753
▁PRO	-12.2756
▁bleed	-12.2756
▁harmon	-12.2757
▁Cu	-12.2758
▁188	-12.2759
▁1,200	-12.2762
▁poorer	-12.2762
▁Combi	-12.2764
sma	-12.2765
▁Clif	-12.2773
▁tang	-12.2774
HEN	-12.2776
▁Shere	-12.2777
▁galvanize	-12.2778
tton	-12.278
mission	-12.2782
▁reinforc	-12.2783
▁outage	-12.2788
▁tailor	-12.2797
ntage	-12.2798
▁Hick	-12.2798
▁topi	-12.2799
▁syndicat	-12.28
▁1,400	-12.2802
▁Addis	-12.2803
▁soup	-12.2804
ureth	-12.2815
wan	-12.2817
▁Pren	-12.2817
▁va	-12.2823
▁butler	-12.2825
▁Dav	-12.2826
FAR	-12.2828
▁rap	-12.2828
▁132	-12.2832
earning	-12.2832
▁quantity	-12.2832
▁Alth	-12.2836
▁Fink	-12.2839
erryman	-12.2839
▁Shea	-12.2842
▁Beth	-12.2848
▁taping	-12.2848
▁Top	-12.2849
▁Sham	-12.2853
tchen	-12.2858
CE	-12.2858
ency	-12.2859
▁McG	-12.2874
bin	-12.2876
▁eighth	-12.2878
▁pitcher	-12.2878
vot	-12.2883
▁Dann	-12.2883
▁pitche	-12.2884
list	-12.289
▁Sel	-12.2892
▁apt	-12.2893
▁unus	-12.2893
▁Wachte	-12.2894
lick	-12.2895
tadium	-12.2905
ircraft	-12.2906
▁curv	-12.2908
17	-12.2909
▁Bowe	-12.291
▁coinciden	-12.2915
main	-12.2918
▁inhibit	-12.2919
▁mad	-12.2923
torage	-12.2923
▁lit	-12.2927
▁Osa	-12.2929
▁clock	-12.2932
▁preparation	-12.2933
enders	-12.2937
▁preoccup	-12.2937
53.2	-12.2937
▁Would	-12.2942
▁amaze	-12.2947
▁Grad	-12.2949
▁offend	-12.2953
▁tips	-12.2953
▁sang	-12.2954
▁customar	-12.2956
ortunate	-12.296
▁refined	-12.2964
▁GA	-12.2965
lower	-12.2968
▁Vick	-12.297
▁bottled	-12.298
▁Ado	-12.2981
▁bat	-12.2984
▁homer	-12.2986
▁Lea	-12.2989
▁acceptance	-12.2993
▁Rail	-12.2994
enig	-12.3
trum	-12.3003
ferro	-12.3006
pate	-12.3009
▁Transit	-12.3014
▁shap	-12.3015
oxy	-12.3028
pot	-12.3031
▁glob	-12.3033
wage	-12.3035
59.2	-12.3037
early	-12.3037
▁distinguish	-12.3046
TER	-12.3048
▁witch	-12.3054
▁Hilt	-12.3069
IL	-12.3069
▁1.26	-12.3075
alem	-12.3078
▁193	-12.308
▁12.7	-12.3084
▁Deb	-12.309
▁roman	-12.3101
▁exp	-12.3104
▁Find	-12.3107
▁Owners	-12.3117
43.6	-12.3117
tious	-12.312
ripped	-12.3127
▁Bid	-12.313
▁Cela	-12.3138
▁bloody	-12.3142
▁overturn	-12.3145
▁receiver	-12.3145
66.7	-12.3149
▁8.42	-12.315
▁explode	-12.3156
▁Midl	-12.3157
▁Hib	-12.3158
▁coff	-12.3164
▁1.60	-12.3168
thetic	-12.3169
▁Bow	-12.317
posed	-12.3173
▁Poly	-12.318
upo	-12.3189
▁375	-12.319
▁Fur	-12.3195
▁obscure	-12.3197
mbros	-12.3202
lnik	-12.3206
▁Dian	-12.3208
▁cooling	-12.3222
doubted	-12.3234
▁1.16	-12.3243
▁AN	-12.3248
▁willful	-12.3254
▁14.2	-12.3255
▁122	-12.3259
▁intentional	-12.3263
▁Bent	-12.3269
▁temp	-12.3272
▁Cle	-12.3273
▁Reed	-12.3282
▁devastati	-12.3283
lane	-12.3295
▁gentl	-12.3296
je	-12.3299
▁undo	-12.3307
▁Wein	-12.3313
her	-12.3318
overi	-12.332
.13	-12.3321
nthia	-12.3322
ask	-12.3327
▁dissolve	-12.333
awmaker	-12.3331
▁forge	-12.3333
▁Cutl	-12.3334
▁inning	-12.3362
▁Born	-12.3364
▁Ols	-12.3364
▁38.5	-12.3364
▁Kyo	-12.3366
▁plac	-12.3372
▁glue	-12.3381
▁12.6	-12.3387
▁decorat	-12.339
aking	-12.3393
▁Sr	-12.3398
rock	-12.3399
▁dispos	-12.3402
▁Stor	-12.3419
ody	-12.3419
▁Welc	-12.3424
gus	-12.3424
▁riches	-12.3427
ransmission	-12.3431
▁buff	-12.3432
▁Base	-12.3439
8.6	-12.344
round	-12.3441
fest	-12.3451
name	-12.3455
7.6	-12.3456
cart	-12.3456
MT	-12.3456
▁19.7	-12.3466
26.3	-12.3468
cassette	-12.3469
▁142.1	-12.3471
▁Sve	-12.3471
.56	-12.3472
butter	-12.3475
▁proc	-12.3475
dropp	-12.3476
rk	-12.349
McG	-12.3493
▁21.7	-12.3493
omb	-12.3498
gap	-12.35
▁Low	-12.3505
▁45-	-12.3508
compatib	-12.3511
Rod	-12.3515
▁conscien	-12.3515
▁Moss	-12.3518
haul	-12.3519
undo	-12.352
▁Mons	-12.3523
toxic	-12.3523
fish	-12.3528
carbon	-12.353
inspire	-12.3533
▁vers	-12.3534
communist	-12.3536
▁pent	-12.3536
basement	-12.354
earth	-12.3541
establish	-12.3542
Eagle	-12.3543
club	-12.3543
Care	-12.3544
sensitive	-12.3546
box	-12.3546
comfortabl	-12.3547
screen	-12.3547
famous	-12.3549
shore	-12.3549
Atlanti	-12.355
electric	-12.355
▁inflat	-12.355
afternoon	-12.3551
purpose	-12.3551
secretary	-12.3552
estimate	-12.3552
conduct	-12.3552
floor	-12.3553
finance	-12.3554
publishe	-12.3554
performance	-12.3554
await	-12.3556
pick	-12.3556
support	-12.3556
policy	-12.3557
impose	-12.3558
▁178.	-12.356
inflation	-12.356
▁Aid	-12.3563
Pu	-12.357
moving	-12.3571
sters	-12.3582
▁neutral	-12.3595
▁bore	-12.3598
nuclear	-12.3599
risco	-12.36
mmon	-12.3602
cast	-12.3602
force	-12.3604
shot	-12.3605
spend	-12.3605
▁cru	-12.3608
880	-12.3609
▁Bab	-12.3612
five	-12.3615
▁Monet	-12.3621
▁chase	-12.3621
count	-12.3625
agg	-12.3627
▁Dillo	-12.363
▁Bau	-12.3637
tun	-12.364
▁Rod	-12.364
▁Exc	-12.3647
track	-12.3647
▁nest	-12.3648
▁176	-12.3655
▁explod	-12.3656
trip	-12.3657
▁Espec	-12.3664
▁Wel	-12.3665
▁beverage	-12.3666
course	-12.3668
▁217	-12.3671
▁Nad	-12.3676
figure	-12.3678
▁235	-12.3679
etails	-12.3687
hler	-12.369
▁21.4	-12.3692
▁Tell	-12.3692
fu	-12.3698
▁Bak	-12.3702
ami	-12.372
▁believ	-12.3723
▁sights	-12.3741
ffy	-12.375
IS	-12.375
ple	-12.3763
▁Pon	-12.3765
television	-12.3767
efined	-12.3768
Med	-12.3779
▁lone	-12.3789
▁Cul	-12.3791
wire	-12.3794
▁flie	-12.3794
evsk	-12.3801
ida	-12.3809
your	-12.3818
ura	-12.3822
▁stagna	-12.3828
▁gam	-12.3829
ano	-12.3843
▁SU	-12.3844
▁Norwa	-12.3852
lor	-12.3853
itu	-12.3856
ilbur	-12.3866
▁Help	-12.3866
▁supervise	-12.3869
▁stockbroker	-12.3871
enko	-12.3877
▁Opera	-12.3879
apa	-12.3883
hn	-12.3886
▁tail	-12.3897
▁23.5	-12.3901
▁resolv	-12.3901
▁Mus	-12.3908
eferred	-12.3909
ads	-12.3909
lum	-12.3911
▁provok	-12.3921
dian	-12.3925
▁DE	-12.3926
▁equ	-12.3929
▁releas	-12.3931
nam	-12.3932
▁fatal	-12.3933
val	-12.3953
▁Tie	-12.3953
5.2	-12.3958
▁Hal	-12.396
oke	-12.3968
GO	-12.3975
▁acc	-12.3976
44	-12.3979
mm	-12.398
▁fle	-12.3984
▁mud	-12.399
bar	-12.3996
▁Marke	-12.4
▁guns	-12.4005
ving	-12.4009
▁gran	-12.4013
▁mode	-12.4016
▁Got	-12.4031
HA	-12.4037
▁247	-12.4041
ante	-12.4046
teful	-12.4047
▁varie	-12.4055
▁FT	-12.4055
position	-12.4057
AD	-12.4059
IB	-12.4061
▁stumbl	-12.4065
▁Sk	-12.4073
▁Str	-12.4073
OA	-12.4073
▁CRA	-12.4074
▁tapes	-12.4084
▁bite	-12.4085
gins	-12.4085
working	-12.409
iddle	-12.4097
ARE	-12.4104
thletic	-12.4104
ffer	-12.4108
greement	-12.4111
alis	-12.4113
▁Gute	-12.4116
▁reassure	-12.412
FC	-12.4129
▁Alban	-12.4131
▁Anton	-12.4133
ash	-12.4138
▁Benefi	-12.4142
uye	-12.4143
▁applau	-12.4145
▁frighten	-12.4149
allowa	-12.4152
▁knee	-12.4152
▁constrain	-12.4152
▁mut	-12.4155
▁overwhelm	-12.4158
ogether	-12.4158
▁frequen	-12.4159
▁shin	-12.4159
▁Era	-12.4163
AST	-12.4166
▁Blu	-12.4173
▁chill	-12.4177
▁Fat	-12.4177
▁integrate	-12.4177
conciliat	-12.4178
DIC	-12.4179
▁17.2	-12.418
▁musicians	-12.4181
▁exacerbate	-12.4182
▁Seg	-12.4182
LD	-12.4187
▁surve	-12.4193
▁Mani	-12.4204
hman	-12.4206
▁passe	-12.4207
boro	-12.4213
mic	-12.4216
▁273	-12.4227
▁emotion	-12.4229
viole	-12.4231
CAA	-12.4231
▁patron	-12.4233
▁robb	-12.4234
▁fertiliz	-12.4236
rner	-12.4237
▁sky	-12.4238
ito	-12.4239
▁constitution	-12.4239
fa	-12.4242
▁exclusiv	-12.4243
▁40.1	-12.4244
trench	-12.4248
▁51-	-12.4254
ull	-12.4254
CK	-12.4257
Conne	-12.426
cott	-12.426
▁dock	-12.426
▁Greenw	-12.4261
racket	-12.4262
▁recreation	-12.4262
eagan	-12.4264
▁deduct	-12.4264
udge	-12.4265
▁Crim	-12.4265
▁GRA	-12.4266
ogna	-12.4267
▁advent	-12.4269
align	-12.4269
▁magnifi	-12.4269
▁applica	-12.427
rney	-12.427
vacu	-12.427
loppy	-12.427
▁pois	-12.427
miscarriage	-12.4271
▁Beghin	-12.4271
▁Bicycl	-12.4271
▁Failure	-12.4271
▁Milwaukee	-12.4271
▁Nutrition	-12.4271
▁Restaurant	-12.4271
▁Technical	-12.4271
▁Tigrean	-12.4271
▁Yamatake	-12.4271
▁abrasive	-12.4271
▁absurd	-12.4271
▁ambivalen	-12.4271
▁appraisal	-12.4271
▁brilliant	-12.4271
▁ceremon	-12.4271
▁civic	-12.4271
▁clarification	-12.4271
▁corporatis	-12.4271
▁crawl	-12.4271
▁culprit	-12.4271
▁disband	-12.4271
▁dwarf	-12.4271
▁explosive	-12.4271
▁eyebrow	-12.4271
▁hormone	-12.4271
▁hypothe	-12.4271
▁intriguing	-12.4271
▁junior	-12.4271
▁landslide	-12.4271
▁ludicrous	-12.4271
▁molecular	-12.4271
▁molecule	-12.4271
▁monetarist	-12.4271
▁negligibl	-12.4271
▁obsolet	-12.4271
▁occupan	-12.4271
▁occupation	-12.4271
▁perfume	-12.4271
▁receptor	-12.4271
▁rescission	-12.4271
▁skittish	-12.4271
▁stalwart	-12.4271
▁stomach	-12.4271
▁submarine	-12.4271
▁transcript	-12.4271
▁unofficial	-12.4271
▁virtue	-12.4271
▁Century	-12.4271
▁Moslem	-12.4271
▁Success	-12.4271
▁complement	-12.4271
▁conduit	-12.4271
▁dentist	-12.4271
▁disdain	-12.4271
▁dissatisf	-12.4271
▁quadrupl	-12.4271
▁sentencing	-12.4271
▁swamp	-12.4271
▁tragic	-12.4271
▁triumph	-12.4271
▁Increasing	-12.4271
▁blunder	-12.4271
▁clobber	-12.4271
▁frantic	-12.4271
▁tarnish	-12.4271
▁Empire	-12.4271
▁premise	-12.4271
▁Geoffr	-12.4271
▁YOU	-12.4271
▁affirmative	-12.4271
▁paralyz	-12.4271
▁leisure	-12.4271
▁Diamond	-12.4271
▁Fiscal	-12.4271
▁slogan	-12.4271
▁cocktail	-12.4271
▁lobbie	-12.4271
▁nuance	-12.4271
▁refra	-12.4271
▁sidewalk	-12.4271
▁Anchor	-12.4271
▁Earthquake	-12.4271
▁vegetable	-12.4271
▁aerobic	-12.4271
▁discredit	-12.4271
▁pediatric	-12.4271
▁Fleisch	-12.4271
▁microcomputer	-12.4271
▁contempt	-12.4271
▁loot	-12.4271
▁hunk	-12.4271
▁reformulat	-12.4271
▁bolt	-12.4271
▁glitz	-12.4271
▁sneak	-12.4271
▁affirm	-12.4271
▁mysterious	-12.4271
▁juice	-12.4271
▁Photo	-12.4271
▁mull	-12.4271
▁rehabilitat	-12.4271
▁Dubin	-12.4271
▁knot	-12.4271
▁plaid	-12.4271
▁rivet	-12.4271
▁Graduate	-12.4271
▁breakthrough	-12.4271
▁DRA	-12.4271
▁smash	-12.4271
enchant	-12.4271
▁superpower	-12.4271
▁demolish	-12.4271
▁consequent	-12.4271
▁subtle	-12.4271
▁McGill	-12.4271
▁hawk	-12.4271
▁Nucor	-12.4271
▁horror	-12.4271
▁hammer	-12.4271
ARCO	-12.4271
▁covet	-12.4271
▁quack	-12.4271
▁dismay	-12.4271
▁fluid	-12.4271
▁Pepper	-12.4271
▁dishonest	-12.4272
▁Team	-12.4272
▁condominium	-12.4272
▁disapprov	-12.4272
▁festival	-12.4272
▁hub	-12.4272
▁masseur	-12.4272
▁watt	-12.4272
▁foam	-12.4272
▁simplify	-12.4272
▁Hold	-12.4272
▁correspondent	-12.4272
▁comparative	-12.4272
▁Veter	-12.4272
▁Prize	-12.4272
▁Senior	-12.4272
▁verbal	-12.4272
▁graceful	-12.4272
▁penetrate	-12.4272
▁autograph	-12.4272
megabi	-12.4272
▁dwelling	-12.4272
▁extradition	-12.4272
▁vocal	-12.4272
▁ONE	-12.4272
▁grace	-12.4272
▁impair	-12.4272
▁fiction	-12.4272
▁crane	-12.4272
▁apparat	-12.4272
▁Depression	-12.4272
▁Edu	-12.4272
▁Eurobond	-12.4273
▁Verit	-12.4273
▁fastener	-12.4273
IEF	-12.4273
▁Leigh	-12.4273
▁intermediate	-12.4273
▁benig	-12.4273
▁dislike	-12.4273
abortionist	-12.4273
▁poet	-12.4273
CSF	-12.4273
▁northeast	-12.4273
▁termination	-12.4273
▁Detr	-12.4274
▁psychologist	-12.4274
▁rewrit	-12.4274
▁sensational	-12.4274
▁Settlement	-12.4274
▁hog	-12.4274
▁booth	-12.4274
▁Hyde	-12.4274
▁Beaver	-12.4274
▁classroom	-12.4274
▁Touris	-12.4274
▁Pega	-12.4274
▁vanish	-12.4274
▁dune	-12.4274
▁Champion	-12.4274
▁plight	-12.4275
▁revel	-12.4275
▁contingen	-12.4275
▁colonial	-12.4275
▁Reich	-12.4275
▁destination	-12.4275
▁STO	-12.4275
▁hiker	-12.4275
▁exit	-12.4275
▁doctrine	-12.4276
▁microscop	-12.4276
▁overhang	-12.4276
▁fence	-12.4276
▁logo	-12.4277
▁Jake	-12.4277
▁cream	-12.4277
▁flee	-12.4277
▁imperial	-12.4277
▁centuri	-12.4278
▁envision	-12.4278
▁Suc	-12.4278
▁Guarant	-12.4278
▁Acad	-12.4278
▁disabilit	-12.4279
▁duo	-12.4279
▁nomination	-12.428
▁24.8	-12.428
▁Flight	-12.4281
▁entitlement	-12.4281
▁township	-12.4281
▁twin	-12.4281
▁historian	-12.4281
▁underpin	-12.4282
▁pave	-12.4282
▁spectator	-12.4282
▁Elliot	-12.4283
▁feminist	-12.4283
▁vehement	-12.4283
▁irk	-12.4283
▁cache	-12.4283
▁orchard	-12.4283
ahl	-12.4283
▁suspicion	-12.4284
▁pervers	-12.4284
▁Gargan	-12.4284
▁Boise	-12.4285
▁Train	-12.4285
▁Beam	-12.4286
▁discharge	-12.4286
ozell	-12.4286
▁Aik	-12.4287
▁commentator	-12.4287
▁Hath	-12.4287
ALI	-12.4287
▁Score	-12.4287
▁1962	-12.4288
▁mouse	-12.4288
▁atom	-12.4288
▁Suz	-12.4288
TRI	-12.4289
ivor	-12.4289
ELL	-12.429
▁canvas	-12.429
▁disarm	-12.429
▁enlist	-12.4291
▁1990-200	-12.4291
▁Off	-12.4291
▁Sidley	-12.4291
▁muse	-12.4291
▁expedite	-12.4291
auts	-12.4291
virulen	-12.4292
▁grass	-12.4292
▁intolerabl	-12.4292
▁Head	-12.4292
pshoot	-12.4292
▁crook	-12.4293
▁McMa	-12.4293
▁Taco	-12.4293
▁unaware	-12.4293
▁servant	-12.4294
▁49.9	-12.4294
ink	-12.4295
▁Tana	-12.4295
▁starv	-12.4295
jara	-12.4295
ladder	-12.4297
stig	-12.4298
▁birthday	-12.4298
olation	-12.4298
▁slacken	-12.4298
▁Creat	-12.43
▁sack	-12.43
▁classical	-12.4301
▁Father	-12.4301
mnib	-12.4302
▁ghostbust	-12.4302
▁Este	-12.4302
far	-12.4303
▁stirr	-12.4303
▁achievement	-12.4305
▁14.3	-12.4306
▁Brewer	-12.4306
▁Fior	-12.4307
▁UNI	-12.4308
▁insult	-12.4308
▁Aga	-12.4308
▁NEWS	-12.4308
toba	-12.4308
▁contention	-12.4309
▁Pizz	-12.4309
dsmo	-12.431
▁deterr	-12.431
cle	-12.431
▁emb	-12.4311
▁Huber	-12.4311
▁Sik	-12.4313
keeps	-12.4313
inz	-12.4314
azz	-12.4315
lounge	-12.4315
▁Shale	-12.4316
oodle	-12.4317
▁Hyp	-12.432
▁290	-12.4322
brake	-12.4323
▁resurgen	-12.4323
Forge	-12.4323
hige	-12.4325
▁tide	-12.4325
▁Atkins	-12.4328
▁Chile	-12.4328
▁directive	-12.4329
▁Rho	-12.4329
ocra	-12.433
▁rum	-12.433
▁Avi	-12.4333
▁380	-12.4334
▁Thal	-12.4334
▁hopeless	-12.4337
▁163	-12.4337
▁lapse	-12.4338
ueen	-12.434
▁Tenne	-12.434
▁Baa	-12.4342
▁Beta	-12.4342
▁belt	-12.4346
▁tract	-12.4348
▁programmer	-12.4348
▁Parkway	-12.4349
▁costume	-12.435
▁Athen	-12.4351
sales	-12.4351
nition	-12.4353
▁sunk	-12.4353
▁Richardson	-12.4353
▁rhythm	-12.4353
▁Iraq	-12.4353
▁inflict	-12.4353
▁scotch	-12.4353
▁plausibl	-12.4353
▁bomber	-12.4353
▁Stalinis	-12.4354
▁ventilat	-12.4354
▁moon	-12.4355
▁breast	-12.4355
▁Wales	-12.4356
▁spar	-12.4356
▁arb	-12.4358
▁prow	-12.4358
▁Pierre	-12.4359
▁168	-12.4361
▁Wich	-12.4362
▁whip	-12.4362
▁Postel	-12.4363
▁45,000	-12.4364
▁panick	-12.4364
rose	-12.4366
▁architectural	-12.4369
▁Sino	-12.4371
▁Customer	-12.4374
rctic	-12.4376
▁Month	-12.4376
▁Bachman	-12.4379
▁142.7	-12.438
▁salt	-12.4381
▁25.8	-12.4382
▁satisfactor	-12.4382
▁Cambodian	-12.4384
▁tacked	-12.4386
▁GAS	-12.4386
graph	-12.4387
▁Pier	-12.4388
▁racis	-12.4389
▁transit	-12.4392
shu	-12.4392
▁MIT	-12.4393
▁114	-12.4394
▁Emery	-12.4397
▁chilling	-12.4397
urn	-12.44
▁Reader	-12.4401
▁Bren	-12.4403
▁Nora	-12.4404
tners	-12.4406
Leb	-12.4408
▁Cather	-12.4414
▁tele	-12.4415
▁Ab	-12.4417
▁intens	-12.4417
▁PRI	-12.4418
▁cola	-12.4419
flamma	-12.442
athed	-12.4422
▁Amer	-12.4426
▁Leu	-12.4429
▁boundar	-12.4429
▁baker	-12.4432
▁rebellio	-12.4434
▁Sevent	-12.4437
▁220	-12.4437
▁populis	-12.4437
▁perk	-12.4437
▁Commer	-12.4439
▁Weir	-12.444
▁taxi	-12.444
▁Lum	-12.4443
▁endangered	-12.4444
▁opportunist	-12.4445
▁integrat	-12.4445
▁504	-12.4453
▁barn	-12.4454
▁commander	-12.4459
▁faction	-12.4468
rangl	-12.4469
▁enforc	-12.447
▁priva	-12.4476
▁stumble	-12.448
arrett	-12.4484
▁commercializ	-12.4486
Frere	-12.4491
rkla	-12.4494
binge	-12.4496
▁crystal	-12.4498
▁STOCK	-12.4498
▁contingency	-12.4499
▁Alce	-12.45
▁blink	-12.4501
erch	-12.4501
▁deepen	-12.4503
▁425,000	-12.4505
▁154	-12.4514
▁incompetent	-12.452
▁Reproducti	-12.4531
berge	-12.4532
▁domin	-12.4534
▁endless	-12.4543
▁15.3	-12.4543
aco	-12.4543
entry	-12.4546
▁menu	-12.455
▁fractional	-12.4553
▁Name	-12.4557
▁deriv	-12.456
▁devot	-12.458
▁mania	-12.4587
aring	-12.4588
mmy	-12.4594
rot	-12.4597
hal	-12.4601
17.6	-12.4602
▁inept	-12.4605
▁advancer	-12.4611
istance	-12.4613
▁Meh	-12.4619
riz	-12.462
▁Cover	-12.462
bil	-12.464
▁Pry	-12.464
▁collar	-12.4642
▁2.62	-12.4646
▁yell	-12.4648
▁Swan	-12.4649
toria	-12.465
▁skirt	-12.4651
▁Jess	-12.4652
zy	-12.466
ID	-12.4662
▁1.43	-12.4663
▁Enr	-12.4665
enberg	-12.467
▁reinsur	-12.4673
▁poster	-12.4673
Va	-12.4677
bid	-12.4681
lateral	-12.4681
▁Hoy	-12.4685
▁Claim	-12.4688
ivol	-12.4693
▁Operati	-12.4703
ace	-12.4704
62.9	-12.4704
bbie	-12.4706
▁sporting	-12.4709
▁Cas	-12.4711
▁flier	-12.4712
now	-12.4721
elease	-12.4723
▁Harlan	-12.4725
▁imagin	-12.4725
oyle	-12.4725
73	-12.4732
chemical	-12.4735
▁Atla	-12.4738
olina	-12.4747
▁Beal	-12.4755
dropper	-12.4756
▁Gal	-12.4759
▁342	-12.4769
▁culminat	-12.4782
▁aw	-12.4784
▁14.7	-12.4784
arcel	-12.4785
▁Lave	-12.4789
dress	-12.4792
▁13-	-12.4794
▁loft	-12.4799
enuous	-12.4804
▁142.4	-12.4809
▁8.47	-12.4812
Ti	-12.4813
▁precis	-12.4815
ullin	-12.4823
▁121	-12.483
ptu	-12.4834
▁Perc	-12.484
▁1,3	-12.4844
▁separat	-12.4845
ACI	-12.4857
▁chairm	-12.4858
▁Prov	-12.4863
▁establishe	-12.4868
mov	-12.4875
▁crumble	-12.4879
▁accountab	-12.4886
▁Scha	-12.4895
▁dictat	-12.4897
FE	-12.4898
UM	-12.4901
fense	-12.4901
asket	-12.4902
lfred	-12.4907
▁ki	-12.4928
ruit	-12.4936
▁deteriorate	-12.4937
▁antiqu	-12.4938
▁Gua	-12.4939
178	-12.4948
▁Dod	-12.4949
determin	-12.4955
▁216	-12.4955
rott	-12.4966
▁wishe	-12.4973
kosh	-12.498
iti	-12.4981
▁Marin	-12.4988
agua	-12.4998
MAN	-12.5003
ENER	-12.5006
▁Isle	-12.5007
▁exceptional	-12.5008
▁Batte	-12.5017
ulp	-12.5022
9.32	-12.5025
rask	-12.5032
▁ambula	-12.5036
▁3.52	-12.5039
occupie	-12.5045
▁forbidding	-12.5047
▁Nova	-12.5063
▁mate	-12.5066
▁Win	-12.5067
▁hill	-12.5071
▁17.9	-12.5077
▁amus	-12.5077
▁facilitat	-12.5078
omba	-12.5085
795	-12.5091
▁preten	-12.5099
▁immunit	-12.5101
urgeon	-12.5112
▁smile	-12.5112
nac	-12.5121
ational	-12.5121
torial	-12.5124
▁231	-12.5129
▁Bard	-12.5139
▁Fac	-12.5142
▁Automat	-12.5142
slab	-12.5144
▁merchandis	-12.5146
▁166	-12.5148
▁shar	-12.5148
▁celebrate	-12.5154
▁miner	-12.5155
AE	-12.5161
▁9.1	-12.5168
▁Crav	-12.5176
▁1,01	-12.5177
ime	-12.518
▁386	-12.5184
aster	-12.5185
▁relocati	-12.5185
OW	-12.5187
▁Seven	-12.5188
▁undergo	-12.5196
▁butter	-12.52
▁Kr	-12.5211
▁captur	-12.5214
PAN	-12.5225
aph	-12.5236
RI	-12.5236
▁Pleas	-12.5244
▁devastat	-12.5258
rison	-12.5264
FP	-12.5265
rium	-12.5268
In	-12.5276
▁sore	-12.5289
iesel	-12.5289
flation	-12.5294
▁briefing	-12.5299
oid	-12.5301
fin	-12.5301
▁Rum	-12.5314
▁279	-12.5316
xe	-12.5317
und	-12.5324
motion	-12.5329
sha	-12.5332
▁Mu	-12.535
lade	-12.5355
37	-12.5356
lac	-12.536
▁Fly	-12.5362
▁13.3	-12.5362
grad	-12.5369
cross	-12.5377
▁OE	-12.5378
▁Canel	-12.5384
scu	-12.5395
lix	-12.5396
▁examin	-12.5402
▁Indo	-12.5405
▁pal	-12.5406
mid	-12.5407
▁Ham	-12.541
▁Conl	-12.5413
flat	-12.5418
▁thinne	-12.5422
▁motivate	-12.5424
▁MA	-12.5424
abell	-12.5429
report	-12.5434
▁Fu	-12.544
▁meter	-12.5448
▁reviv	-12.5452
▁11.9	-12.5452
8.9	-12.5456
▁Driv	-12.5457
ife	-12.5459
▁admitt	-12.5461
▁7.37	-12.5466
publicize	-12.5466
▁Lack	-12.5468
▁47-	-12.5472
▁57-	-12.5481
engine	-12.5486
▁para	-12.5491
▁Bru	-12.5493
break	-12.5501
▁323	-12.5505
▁fli	-12.5507
▁1.55	-12.5508
anza	-12.551
shirt	-12.5513
book	-12.5516
educat	-12.5516
classifie	-12.5518
stroke	-12.5523
float	-12.5525
casualty	-12.5531
profile	-12.5532
approve	-12.5533
▁mandat	-12.5534
relevan	-12.5536
smoking	-12.5538
llow	-12.5538
punish	-12.5539
Shell	-12.5543
missile	-12.5543
creation	-12.5545
▁Sc	-12.5547
circuit	-12.5548
penalt	-12.5549
▁dictate	-12.555
Phillip	-12.5551
competitive	-12.5552
regard	-12.5552
Technolog	-12.5553
explain	-12.5553
NO	-12.5554
paper	-12.5554
majority	-12.5554
manufacturing	-12.5554
▁Parso	-12.5555
practice	-12.5555
match	-12.5555
standard	-12.5555
block	-12.5555
budget	-12.5556
First	-12.5556
amount	-12.5556
world	-12.5557
general	-12.5557
Japanese	-12.5557
buying	-12.5558
New	-12.5559
▁17.5	-12.5561
before	-12.5563
shell	-12.5563
executive	-12.5564
▁Holt	-12.557
session	-12.5572
▁Rememb	-12.5573
▁Lad	-12.5573
tom	-12.5575
GM	-12.5577
million	-12.5578
chang	-12.558
raven	-12.5592
For	-12.5594
rek	-12.5595
▁precedent	-12.5595
dividend	-12.5597
chairman	-12.5598
predictabl	-12.56
▁16.3	-12.5608
▁18.4	-12.561
15,000	-12.5612
21	-12.5619
ogram	-12.5619
▁Rick	-12.563
lim	-12.5631
kill	-12.5632
▁Flemi	-12.5634
▁Bosti	-12.5638
▁161	-12.5639
erred	-12.564
▁brun	-12.5645
▁McC	-12.5647
.52	-12.5647
▁associat	-12.5649
EL	-12.5651
56	-12.5653
▁Legislat	-12.5654
▁Due	-12.5654
▁cock	-12.5655
▁Unification	-12.5659
NS	-12.5659
treat	-12.5661
▁aggravate	-12.5663
-200	-12.5667
91	-12.5667
▁120-	-12.567
oli	-12.5671
unk	-12.5674
▁Ries	-12.5678
tant	-12.5678
▁Donnell	-12.5683
▁governors	-12.5685
▁divid	-12.5687
esque	-12.5687
▁157	-12.5689
▁Isa	-12.5689
Roth	-12.5691
▁cosmetic	-12.5692
reported	-12.5701
nza	-12.5704
about	-12.571
Say	-12.5711
pill	-12.5711
DUS	-12.5715
▁sel	-12.572
dler	-12.5737
▁moderniz	-12.5737
uki	-12.5741
ui	-12.5749
pent	-12.5755
bearing	-12.5765
▁wag	-12.5766
nbaum	-12.5785
▁minimalis	-12.5785
charg	-12.5787
org	-12.5801
▁bans	-12.5804
▁2,20	-12.5806
▁wip	-12.5806
▁368.	-12.5807
▁Cher	-12.5811
▁flame	-12.5814
uke	-12.5814
42	-12.5829
robe	-12.5839
inority	-12.5849
▁summar	-12.585
sica	-12.5851
▁stimulat	-12.5854
ilitary	-12.5856
▁ego	-12.5863
▁launche	-12.587
▁disc	-12.5873
▁Vanit	-12.5873
rack	-12.5875
volo	-12.5875
▁Alexandri	-12.5879
▁Hugh	-12.5885
▁99.6	-12.5886
fact	-12.5886
▁Wars	-12.5887
touch	-12.5905
▁Hand	-12.5906
plic	-12.591
claims	-12.591
▁wit	-12.592
▁Cur	-12.5925
rdin	-12.5925
▁revolv	-12.5927
,850	-12.5943
▁communication	-12.5943
▁spreads	-12.5943
▁330	-12.5946
stride	-12.5949
▁134	-12.5957
▁ven	-12.5961
▁Haw	-12.5963
▁unsc	-12.5971
airfield	-12.5978
har	-12.5984
2.3	-12.5986
▁evolv	-12.5992
▁182	-12.5993
angered	-12.5998
▁governmental	-12.6002
▁novelist	-12.6008
greedy	-12.6009
lders	-12.6009
▁resembl	-12.601
▁monst	-12.6021
▁Lon	-12.6024
▁amortiz	-12.6024
▁McN	-12.6025
▁Flor	-12.6026
▁resum	-12.6032
▁Stre	-12.6036
▁Won	-12.6037
prov	-12.6038
LE	-12.604
▁dish	-12.6049
8.32	-12.6055
inda	-12.6056
udi	-12.6059
65,000	-12.6065
Line	-12.6067
ucker	-12.6067
▁Pic	-12.6069
usk	-12.607
▁conditional	-12.6076
hipping	-12.6077
ctica	-12.6084
ik	-12.6092
saving	-12.6095
▁reiterat	-12.6102
▁Denn	-12.6105
▁49-	-12.6105
▁165	-12.6106
ception	-12.6106
▁Buck	-12.6107
wed	-12.6114
▁flex	-12.6116
92	-12.6121
▁burdens	-12.6122
uan	-12.6123
▁Harpe	-12.6134
▁Tex	-12.6137
▁relation	-12.6143
▁Greg	-12.6145
roadway	-12.6145
CNB	-12.615
▁incompeten	-12.615
▁happi	-12.6151
▁540	-12.6153
▁11.6	-12.6156
▁budge	-12.6158
▁patien	-12.6159
▁tack	-12.616
mbing	-12.6161
▁Hun	-12.6162
▁48-	-12.6163
▁Arch	-12.6164
▁medi	-12.6164
stitut	-12.6166
▁Phi	-12.617
rho	-12.6175
▁14.5	-12.6177
39	-12.618
▁Politic	-12.6184
▁predictab	-12.6191
uld	-12.6194
▁bankruptc	-12.6195
▁ambigu	-12.6195
BEA	-12.6195
▁astron	-12.6201
ester	-12.6203
▁Bia	-12.6203
▁27.1	-12.6204
▁automat	-12.6209
MB	-12.621
▁2,4	-12.621
▁189	-12.6216
▁futur	-12.6217
infect	-12.6221
▁137	-12.6231
▁distill	-12.6233
unu	-12.6233
MENT	-12.6244
iegle	-12.6249
variabl	-12.6251
▁Hondura	-12.6251
integrated	-12.6253
▁Bulgaria	-12.6254
▁escap	-12.6254
▁Libya	-12.6255
CIO	-12.6256
paste	-12.6256
▁ensu	-12.6259
▁wrap	-12.6259
▁brow	-12.626
▁deductib	-12.626
▁Continent	-12.6261
▁defi	-12.6262
▁Lub	-12.6262
▁elevat	-12.6263
welve	-12.6263
▁Kai	-12.6263
▁implicat	-12.6265
tosh	-12.6265
rcade	-12.6266
uth	-12.6266
OY	-12.6267
▁judicia	-12.6268
▁ratifi	-12.6268
▁candida	-12.6269
▁suspicio	-12.6269
▁legitima	-12.6269
eginning	-12.6269
▁accura	-12.6269
nsequent	-12.627
▁diagnosi	-12.627
▁Coffee	-12.6271
▁Czech	-12.6271
▁FINANC	-12.6271
▁Gabriel	-12.6271
▁HEALTH	-12.6271
▁Kawasaki	-12.6271
▁Kimberly	-12.6271
▁Pencil	-12.6271
▁Protestant	-12.6271
▁Register	-12.6271
▁Soybean	-12.6271
▁Spirit	-12.6271
▁Stovall	-12.6271
▁Tropic	-12.6271
▁brigade	-12.6271
▁brochure	-12.6271
▁clutch	-12.6271
▁convenient	-12.6271
▁covenant	-12.6271
▁delinquent	-12.6271
▁erroneous	-12.6271
▁escrow	-12.6271
▁fluctuate	-12.6271
▁fountain	-12.6271
▁garbage	-12.6271
▁immense	-12.6271
▁ingredient	-12.6271
▁magistrate	-12.6271
▁metallurg	-12.6271
▁misinterpret	-12.6271
▁muni	-12.6271
▁nameplate	-12.6271
▁neurologist	-12.6271
▁ominous	-12.6271
▁peanut	-12.6271
▁peculiar	-12.6271
▁porcelain	-12.6271
▁prejudice	-12.6271
▁primitive	-12.6271
▁religion	-12.6271
▁resilient	-12.6271
▁sequel	-12.6271
▁sprawl	-12.6271
▁subcompact	-12.6271
▁trumpet	-12.6271
▁videotape	-12.6271
Wuerttemb	-12.6271
collegia	-12.6271
ilgrim	-12.6271
▁Continu	-12.6271
▁Convention	-12.6271
▁Ikegai	-12.6271
▁Traffic	-12.6271
▁catheter	-12.6271
▁circumvent	-12.6271
▁commemorat	-12.6271
▁decentraliz	-12.6271
▁dramatization	-12.6271
▁erratic	-12.6271
▁flourish	-12.6271
▁increment	-12.6271
▁miscalculat	-12.6271
▁reaffirm	-12.6271
▁reverberat	-12.6271
▁shrewd	-12.6271
▁stabb	-12.6271
▁Cardinal	-12.6271
▁boutique	-12.6271
▁cancellation	-12.6271
▁closure	-12.6271
▁faint	-12.6271
▁feasib	-12.6271
▁psychiatr	-12.6271
▁relish	-12.6271
▁siphon	-12.6271
▁Escort	-12.6271
▁dread	-12.6271
▁prostitute	-12.6271
▁unnerv	-12.6271
▁windshield	-12.6271
▁rebut	-12.6271
cliff	-12.6271
▁Traditional	-12.6271
▁destabiliz	-12.6271
▁paragraph	-12.6271
▁seminar	-12.6271
▁thirty	-12.6271
▁Matsushita	-12.6271
▁Reason	-12.6271
▁Resort	-12.6271
▁kingpin	-12.6271
▁motive	-12.6271
▁Islam	-12.6271
ercussion	-12.6271
leukin	-12.6271
▁tacit	-12.6271
erbera	-12.6271
▁Samsung	-12.6271
▁feud	-12.6271
▁intensifie	-12.6271
▁Pilot	-12.6271
▁masseuse	-12.6271
▁Chicken	-12.6271
▁cookbook	-12.6271
▁inexorabl	-12.6271
▁ploy	-12.6271
▁surtax	-12.6271
▁Yoshi	-12.6271
▁disgr	-12.6271
▁Thermo	-12.6271
▁sanitation	-12.6271
▁grape	-12.6271
▁czar	-12.6271
anemia	-12.6271
▁Valentin	-12.6271
▁inaccurate	-12.6271
▁Caesar	-12.6271
▁extrusion	-12.6271
▁cousin	-12.6271
▁snake	-12.6271
▁trait	-12.6271
▁Scull	-12.6271
▁decima	-12.6271
▁flesh	-12.6271
▁Krishna	-12.6271
▁slamme	-12.6271
▁Studio	-12.6271
▁passionate	-12.6271
▁Nikon	-12.6271
▁minicar	-12.6271
▁Newspaper	-12.6271
▁lurch	-12.6271
▁rejoin	-12.6271
▁underperform	-12.6271
▁Munich	-12.6271
▁dispel	-12.6271
▁anchor	-12.6271
▁Timber	-12.6271
▁Collect	-12.6271
▁Rawl	-12.6271
▁mound	-12.6272
▁whipsaw	-12.6272
▁ninth	-12.6272
▁terra	-12.6272
▁counterbid	-12.6272
▁Witness	-12.6272
▁clarinet	-12.6272
▁Metam	-12.6272
gulf	-12.6272
▁cartridge	-12.6272
▁COMPAN	-12.6272
▁revert	-12.6272
▁indebted	-12.6272
▁fetus	-12.6272
▁void	-12.6272
▁Hatch	-12.6272
▁liberalization	-12.6272
▁chante	-12.6272
▁annoy	-12.6272
▁banana	-12.6272
ucci	-12.6272
▁Grim	-12.6272
▁packet	-12.6272
▁Carbon	-12.6272
▁cogeneration	-12.6272
▁Visit	-12.6273
▁decree	-12.6273
▁wander	-12.6273
▁Gerard	-12.6273
▁slee	-12.6273
riminal	-12.6273
▁Mulro	-12.6273
▁stapl	-12.6273
▁12:0	-12.6273
▁paycheck	-12.6273
▁yacht	-12.6273
▁Lomb	-12.6273
▁embroi	-12.6273
▁pleasant	-12.6273
▁Regard	-12.6273
▁depart	-12.6273
▁Half	-12.6273
▁Rubel	-12.6273
fertility	-12.6273
▁complication	-12.6273
▁furious	-12.6274
▁Cortes	-12.6274
▁Wagg	-12.6274
mponent	-12.6274
▁braw	-12.6274
▁pause	-12.6274
▁hoard	-12.6274
▁pacemaker	-12.6274
▁Shore	-12.6274
▁overthrow	-12.6274
▁replay	-12.6274
lund	-12.6274
▁detain	-12.6274
▁counterclaim	-12.6274
▁Deep	-12.6274
▁Strau	-12.6275
▁slot	-12.6275
▁intrude	-12.6275
▁Conra	-12.6275
ipher	-12.6275
▁subtract	-12.6275
▁peripheral	-12.6275
▁Ruff	-12.6275
1.8	-12.6275
siege	-12.6275
▁preview	-12.6276
▁disintegrat	-12.6276
▁plow	-12.6276
▁Rifkin	-12.6276
▁hospitalization	-12.6276
▁bode	-12.6276
tall	-12.6277
▁Pride	-12.6277
▁Cobb	-12.6277
▁Lieber	-12.6277
▁Stin	-12.6277
▁detective	-12.6277
▁roil	-12.6277
▁Writ	-12.6277
haw	-12.6278
▁drawback	-12.6278
▁Leverage	-12.6278
▁Castle	-12.6278
▁turban	-12.6278
sahi	-12.6278
▁Batch	-12.6278
▁Electron	-12.6278
▁giveaway	-12.6278
▁Elk	-12.6278
▁logg	-12.6278
▁ceme	-12.6279
▁Artist	-12.6279
▁fatten	-12.6279
▁artwork	-12.6279
▁pianist	-12.628
▁chopp	-12.628
▁SKr	-12.628
▁queen	-12.628
▁22.6	-12.628
▁4.07	-12.628
▁picket	-12.6281
▁Insider	-12.6281
▁outbreak	-12.6281
▁misde	-12.6282
▁crown	-12.6282
igolo	-12.6282
▁Sci	-12.6282
▁drugstore	-12.6282
isease	-12.6283
▁Recover	-12.6284
▁Rowland	-12.6284
VC	-12.6284
▁sadd	-12.6284
▁Carew	-12.6284
▁delet	-12.6284
rusade	-12.6285
▁Secret	-12.6285
▁Less	-12.6285
pita	-12.6286
▁Vision	-12.6286
▁Gabel	-12.6286
▁progressive	-12.6286
▁eloquent	-12.6286
▁80%-	-12.6286
▁Hersh	-12.6286
▁narcot	-12.6286
Tate	-12.6286
anium	-12.6286
▁divest	-12.6286
▁donor	-12.6287
▁1,300	-12.6287
▁furnish	-12.6287
▁Hawaiian	-12.6287
▁Shul	-12.6287
▁Gog	-12.6288
▁railway	-12.6288
▁emer	-12.6288
▁roar	-12.6289
▁compliment	-12.6289
▁symbolic	-12.6289
▁Fuel	-12.629
▁1,100	-12.629
▁HAS	-12.629
▁Helen	-12.629
▁resin	-12.6291
▁Leche	-12.6292
▁anonymous	-12.6294
▁DAR	-12.6294
▁mitigat	-12.6294
▁1.614	-12.6294
▁Bax	-12.6294
biolog	-12.6295
▁originate	-12.6295
alcoholic	-12.6296
▁Oka	-12.6296
▁outpace	-12.6296
▁Forrest	-12.6297
▁fisher	-12.6297
▁Adolph	-12.6297
lchri	-12.6297
▁hobbl	-12.6298
▁propulsi	-12.6298
▁2.79	-12.6298
▁Namibia	-12.6298
▁HE	-12.6298
▁gall	-12.6299
▁575	-12.6299
▁chest	-12.63
umberg	-12.6301
▁527	-12.6301
▁calculator	-12.6301
▁Wor	-12.6301
▁analog	-12.6302
▁cynical	-12.6302
pponent	-12.6302
▁309	-12.6302
▁wrestl	-12.6303
▁Bang	-12.6303
▁Chip	-12.6303
▁Tart	-12.6305
▁LaB	-12.6305
▁Dog	-12.6306
▁Plain	-12.6306
ashion	-12.6307
▁Bark	-12.6307
▁Cash	-12.6308
▁Dodger	-12.6309
▁Lag	-12.6311
▁tangle	-12.6311
▁Hollist	-12.6312
▁Contract	-12.6312
▁assertion	-12.6312
▁torn	-12.6313
▁shipbuild	-12.6314
▁Hard	-12.6314
▁foreclos	-12.6315
ruff	-12.6316
▁44.3	-12.6316
▁laud	-12.6316
▁distiller	-12.6317
▁Concer	-12.6319
▁sucker	-12.6319
▁merc	-12.6319
ppe	-12.6319
▁reseller	-12.6321
▁Rush	-12.6321
▁spurn	-12.6322
▁reshap	-12.6322
adventure	-12.6323
▁proto	-12.6323
▁jamm	-12.6324
▁Param	-12.6324
49.4	-12.6326
▁Gaul	-12.6327
▁slick	-12.6327
▁Wha	-12.6328
▁43.3	-12.6329
iction	-12.6329
inner	-12.6331
▁dare	-12.6332
▁Frau	-12.6332
sche	-12.6333
efront	-12.6334
aga	-12.6334
▁Insight	-12.6335
ebenture	-12.6335
83.2	-12.6336
reate	-12.6337
▁Gann	-12.6338
▁rendering	-12.6339
Kenna	-12.6339
etric	-12.634
MER	-12.634
▁453	-12.634
▁14.1	-12.6341
,070	-12.6343
▁honey	-12.6345
▁Scal	-12.6346
▁242	-12.6348
reparation	-12.6348
▁Harley	-12.635
▁Pete	-12.6351
▁logistics	-12.6352
▁Push	-12.6352
▁Hach	-12.6352
▁Smithson	-12.6355
▁solvent	-12.6356
zw	-12.6357
42.5	-12.6357
▁gangs	-12.6358
▁4\/	-12.6358
▁reassuring	-12.6359
▁Sala	-12.636
▁Jaff	-12.6362
▁Gill	-12.6364
ushk	-12.6364
▁magnet	-12.6372
▁allay	-12.6372
▁adjudicator	-12.6374
▁allotment	-12.6374
▁congratulat	-12.6374
▁Freud	-12.6374
▁Rost	-12.6375
▁Music	-12.6375
▁commend	-12.6376
▁qualifie	-12.6376
▁Higher	-12.6378
▁Shin	-12.6378
zin	-12.6379
bri	-12.6379
▁Rule	-12.6381
▁219	-12.6382
▁lengthen	-12.6383
▁jar	-12.6386
maint	-12.6386
▁Hori	-12.6386
▁juri	-12.6386
▁geograph	-12.6388
▁350,000	-12.639
▁operative	-12.639
▁Gum	-12.6392
▁Kro	-12.6395
▁252	-12.6396
▁Station	-12.6397
▁Gir	-12.6403
▁quarterback	-12.6403
▁NK	-12.6404
▁DJ	-12.6408
pled	-12.6413
nts	-12.6413
▁frightening	-12.6421
24,8	-12.6426
▁Beneficia	-12.6431
crust	-12.6432
▁copier	-12.6432
▁Lance	-12.6434
moto	-12.6434
▁wool	-12.6435
▁reiterate	-12.6442
cial	-12.6442
eduction	-12.6444
isabilit	-12.6444
1,8	-12.6448
▁Giff	-12.6449
▁stamping	-12.6449
▁Malone	-12.645
▁RT	-12.645
▁Buckle	-12.6454
▁Jacques	-12.6456
emina	-12.6457
▁Hort	-12.6458
▁substanti	-12.6459
▁thrive	-12.6465
▁Stark	-12.647
ooz	-12.6471
▁Brunswi	-12.6471
▁Klo	-12.6478
▁208	-12.648
etrochemical	-12.6483
▁Adding	-12.6488
20.9	-12.6489
▁Schwe	-12.6492
▁butterf	-12.6492
▁serial	-12.6496
ovan	-12.6497
▁Plat	-12.6499
▁documentar	-12.6501
▁prose	-12.6507
▁Tonk	-12.6512
▁Buyer	-12.6513
▁2.02	-12.6516
▁mock	-12.6517
▁nerd	-12.652
ears	-12.6527
▁Edels	-12.6535
▁commerc	-12.6536
enter	-12.654
rranti	-12.6541
▁Diet	-12.6542
matic	-12.6544
▁cla	-12.6555
▁ravage	-12.6555
▁Watergate	-12.6555
▁evolve	-12.6557
▁kickback	-12.6558
shak	-12.6562
aja	-12.6566
▁trailer	-12.6567
▁Letter	-12.6568
▁continent	-12.6571
▁Cra	-12.6574
▁generator	-12.6581
▁mason	-12.6582
▁helm	-12.6587
avo	-12.6587
gal	-12.6588
▁laughing	-12.6588
ators	-12.6591
▁Bets	-12.6591
▁184	-12.6592
ritz	-12.6598
▁Oz	-12.6599
▁Cl	-12.66
▁Hawk	-12.6602
▁squeez	-12.6611
▁interven	-12.6611
▁rotat	-12.6611
ilbert	-12.6612
strategic	-12.6613
alog	-12.6614
▁Bik	-12.6623
▁rattle	-12.6624
not	-12.6625
▁Runn	-12.6626
▁tooth	-12.6629
▁esp	-12.663
▁Reid	-12.6643
▁390	-12.6643
▁Shipp	-12.6644
▁Plast	-12.6646
▁bog	-12.6655
▁Borde	-12.6655
82.8	-12.6658
omi	-12.6659
pho	-12.6668
84	-12.6669
icle	-12.6672
1.3	-12.6676
▁lotter	-12.6678
INE	-12.668
▁tur	-12.668
▁skipp	-12.6685
▁Bayer	-12.6691
589	-12.6693
▁1\/	-12.6693
onic	-12.6697
▁Cay	-12.6699
▁admir	-12.6701
▁Brod	-12.6702
32.6	-12.671
329	-12.6714
▁undertake	-12.6721
▁renegotiate	-12.6722
▁listener	-12.6726
▁Bori	-12.6727
▁Kno	-12.6728
▁slimm	-12.673
orgi	-12.6734
▁abound	-12.6735
▁wield	-12.6743
▁subscription	-12.6745
▁depth	-12.6745
▁malic	-12.6745
▁Laugh	-12.6746
▁spa	-12.6755
334	-12.6758
▁belonging	-12.6758
▁concurren	-12.676
▁nurser	-12.6762
5.9	-12.6764
rge	-12.6767
xcept	-12.677
undat	-12.6777
▁sandwich	-12.6777
NA	-12.6778
▁embrac	-12.6782
▁AC	-12.6793
rmal	-12.6794
aul	-12.6802
▁impede	-12.6805
▁Bland	-12.681
roke	-12.6811
lice	-12.6815
▁communis	-12.6815
ote	-12.6828
▁Elle	-12.6829
▁Kos	-12.6835
▁Pys	-12.6835
discriminati	-12.6835
laba	-12.6842
2.7	-12.6842
666	-12.6843
▁contender	-12.6846
▁plott	-12.6848
▁Verd	-12.6855
▁Chem	-12.6855
ruise	-12.6865
▁Kern	-12.6867
1-2	-12.6867
▁carve	-12.6868
▁alley	-12.6871
udden	-12.6872
▁1.76	-12.6873
.59	-12.6874
▁dominan	-12.6874
▁acid	-12.6884
22.7	-12.6888
▁tally	-12.6889
▁Asht	-12.6891
▁corners	-12.6893
Holling	-12.6893
▁ju	-12.6895
secr	-12.6896
36.6	-12.6898
▁Pfi	-12.6905
▁fatalit	-12.6907
▁beam	-12.691
▁suppress	-12.6919
8,500	-12.692
ctic	-12.6923
wai	-12.6925
▁champ	-12.6925
▁cosm	-12.6929
▁452	-12.693
3.31	-12.6931
▁ear	-12.6934
cell	-12.6935
▁megawatt	-12.6941
rton	-12.6953
thyl	-12.6961
ector	-12.6964
ATA	-12.6969
militar	-12.6975
YER	-12.6976
▁Hano	-12.6977
elated	-12.6983
convertible	-12.6997
▁McKin	-12.6999
▁Lud	-12.7001
iegel	-12.7004
USI	-12.7012
swag	-12.7017
▁Myr	-12.7021
▁EG	-12.7021
BA	-12.703
▁1,2	-12.7034
▁Tit	-12.7034
▁Kad	-12.705
▁cho	-12.705
phom	-12.7053
▁Juli	-12.7055
▁rand	-12.7058
▁Bake	-12.7058
▁doll	-12.7059
▁MAC	-12.7062
▁266	-12.7063
ident	-12.7064
pear	-12.7069
eigh	-12.7078
LI	-12.7083
▁248	-12.7085
vote	-12.709
suit	-12.7103
▁Willi	-12.7103
▁ripe	-12.7112
▁broadcaster	-12.7118
leave	-12.7119
aving	-12.7141
▁journalis	-12.7146
asser	-12.7158
▁Kal	-12.7162
uro	-12.7164
erCar	-12.7165
▁2.87	-12.7166
▁stimul	-12.7166
SAS	-12.7167
EM	-12.7167
▁Kenne	-12.7171
▁7.0	-12.7178
▁undermin	-12.7184
▁unrel	-12.7189
▁1.46	-12.7197
▁buyout	-12.7204
95	-12.7212
▁pleading	-12.7238
43	-12.725
▁zi	-12.7253
23.8	-12.7259
66.8	-12.7266
caster	-12.7271
▁Hur	-12.7275
cide	-12.7279
owl	-12.7281
spor	-12.7284
▁Guardia	-12.7299
mira	-12.7299
▁Till	-12.7309
invasi	-12.7313
orous	-12.7336
▁Ing	-12.7339
auer	-12.7343
▁ram	-12.7344
▁cassette	-12.7347
-7	-12.7349
▁screening	-12.7353
▁Bad	-12.7355
▁whitewa	-12.7359
▁410	-12.7372
▁8.01	-12.7374
ctor	-12.7375
uffer	-12.7381
parent	-12.7386
rift	-12.739
ci	-12.7393
onis	-12.7396
new	-12.7402
▁nam	-12.7405
▁gon	-12.7407
illi	-12.7409
dealers	-12.741
▁spe	-12.7413
migration	-12.7417
aron	-12.7422
▁265	-12.7428
▁Ker	-12.7454
-12	-12.7454
▁10.7	-12.7458
▁abus	-12.7459
▁Corrupt	-12.746
pokesperson	-12.746
▁Guil	-12.7462
▁43.5	-12.7462
una	-12.7464
▁amasse	-12.7473
dez	-12.7489
1.4	-12.749
▁Viro	-12.7496
▁Male	-12.7503
▁intelligent	-12.7505
▁perch	-12.7505
▁Shr	-12.7518
▁Barri	-12.752
cla	-12.7531
▁Form	-12.7532
3.6	-12.7534
cision	-12.7545
ause	-12.7547
▁physic	-12.7547
nesia	-12.7575
▁Harri	-12.7578
▁Masi	-12.7588
▁behav	-12.7594
▁Lamb	-12.7598
▁flap	-12.7599
▁lip	-12.7602
▁Revis	-12.7607
▁19-	-12.7611
▁Geo	-12.7615
▁Pett	-12.7616
cious	-12.7616
▁Buff	-12.7618
▁461	-12.7623
▁1,85	-12.7627
▁Feli	-12.7635
tzer	-12.764
uf	-12.765
fel	-12.766
▁shorten	-12.7661
met	-12.7663
▁hone	-12.7664
▁Sign	-12.7711
▁relocat	-12.7715
▁Imp	-12.7722
▁21.8	-12.7725
▁smil	-12.7726
lar	-12.7726
30.1	-12.7735
ttison	-12.7737
▁67-	-12.775
gging	-12.7754
▁coaster	-12.7754
▁Sab	-12.7754
rtz	-12.7757
▁Kau	-12.7758
▁guid	-12.776
diction	-12.7762
▁Speculati	-12.7779
▁busi	-12.7789
▁lips	-12.779
rac	-12.7792
urban	-12.7793
writ	-12.7795
▁log	-12.7799
▁Cold	-12.7804
▁354	-12.781
ude	-12.7812
ira	-12.7815
▁frag	-12.7825
▁competenc	-12.7827
23.2	-12.7831
▁Tib	-12.7836
▁substitut	-12.7837
erald	-12.7839
cit	-12.7846
02	-12.7852
▁basement	-12.786
anche	-12.7862
▁cro	-12.7862
▁refinance	-12.7863
▁Conse	-12.7872
pit	-12.7881
▁Own	-12.7887
rke	-12.7902
▁5.0	-12.7908
▁21.2	-12.7915
▁Presid	-12.7918
▁assemble	-12.792
▁156	-12.793
▁Schwa	-12.7946
descen	-12.7948
▁640	-12.7948
▁Mile	-12.7953
ety	-12.7954
▁trac	-12.7956
nding	-12.7963
witch	-12.7965
MU	-12.7968
megawatt	-12.7972
▁unde	-12.7974
meat	-12.7975
▁advocat	-12.7976
374	-12.7978
▁11.3	-12.798
media	-12.798
rental	-12.7985
flu	-12.7986
▁14.8	-12.7993
glob	-12.8
reedom	-12.8001
Unit	-12.8003
0.10	-12.8008
writer	-12.8008
revolutionar	-12.8012
distinguish	-12.8015
gallon	-12.8019
urg	-12.8019
▁chok	-12.802
nger	-12.8021
FOR	-12.8023
▁grind	-12.8027
emphasize	-12.8027
insure	-12.8027
Dono	-12.803
athlete	-12.8031
heel	-12.8032
examine	-12.8032
coast	-12.8032
Palestinian	-12.8033
licens	-12.8033
wheel	-12.8033
finish	-12.8033
fifth	-12.8034
Clark	-12.8034
▁Cut	-12.8034
debt	-12.8035
Good	-12.8035
Honey	-12.804
bias	-12.804
neck	-12.804
denomination	-12.8042
perfect	-12.8044
assign	-12.8045
connect	-12.8045
transport	-12.8046
resident	-12.8046
road	-12.8046
weapons	-12.8047
▁221	-12.8047
covering	-12.8047
honor	-12.8048
fellow	-12.8049
depress	-12.805
fraud	-12.8051
Day	-12.8052
assume	-12.8052
supplie	-12.8053
blue	-12.8053
telephone	-12.8055
vehicle	-12.8055
franc	-12.8055
quake	-12.8055
Jaguar	-12.8056
important	-12.8057
minimum	-12.8057
period	-12.8057
British	-12.8057
Japan	-12.8057
root	-12.8059
Corp	-12.8059
three	-12.8059
Time	-12.8059
flight	-12.806
ioni	-12.8061
steel	-12.8062
demand	-12.8063
Nov	-12.8064
asset	-12.8065
stopp	-12.8065
retail	-12.8066
dozen	-12.8066
recover	-12.8068
elder	-12.8069
▁assisted	-12.8071
▁decreas	-12.8073
prepared	-12.8074
Gas	-12.8078
heart	-12.8083
accept	-12.8085
David	-12.8087
loft	-12.8087
placement	-12.8088
suppress	-12.8089
color	-12.8092
▁11.2	-12.8093
1.60	-12.8093
▁sober	-12.8094
gang	-12.8094
arily	-12.8094
William	-12.8096
owner	-12.8101
▁570	-12.8104
manager	-12.8107
acquisition	-12.8108
speed	-12.811
udder	-12.8114
▁Tro	-12.8123
35.2	-12.8124
EG	-12.8124
▁Eri	-12.8126
▁battl	-12.8129
▁1.582	-12.8129
measure	-12.8131
2.6	-12.8132
2645	-12.8132
▁pressur	-12.8134
▁406	-12.8136
uite	-12.8137
champ	-12.8138
winn	-12.8141
▁Gla	-12.8142
▁stretche	-12.8143
▁Sub	-12.8145
tree	-12.8152
7.87	-12.8155
ampoo	-12.8156
▁sandwiche	-12.8157
▁Groupe	-12.8157
national	-12.8158
sale	-12.8158
tuition	-12.8166
rol	-12.8168
pore	-12.8169
▁1.90	-12.8175
▁glamo	-12.8178
▁99.7	-12.818
▁entitl	-12.8187
▁confide	-12.819
▁arriv	-12.8193
serv	-12.8194
▁Solo	-12.8195
tari	-12.8195
Cor	-12.8198
▁descend	-12.8202
2009	-12.8217
▁Cit	-12.8218
▁dependenc	-12.8218
▁Gala	-12.822
cio	-12.8226
cur	-12.8226
60,000	-12.8228
▁Gard	-12.823
elli	-12.8231
CD	-12.8234
warm	-12.8243
▁admirabl	-12.8245
▁AP	-12.8262
▁Cla	-12.8263
88	-12.8263
1.72	-12.8271
ellin	-12.8277
stage	-12.8279
meal	-12.8282
ute	-12.8283
▁clan	-12.8286
▁perpetua	-12.8287
intention	-12.8292
▁26.5	-12.8292
▁2.0	-12.8294
Edg	-12.8295
father	-12.831
laine	-12.8327
▁Invest	-12.8327
▁54.5	-12.8333
oxin	-12.8338
atory	-12.834
cheri	-12.8341
▁derive	-12.8341
▁Ein	-12.8346
▁Lav	-12.8346
▁Yo	-12.8346
▁177	-12.8347
employee	-12.835
▁mach	-12.8354
▁Copy	-12.8356
elix	-12.8359
[...]
